<pad>	0
<unk>	0
<s>	0
</s>	0
▁t	-0
▁a	-1
in	-2
er	-3
on	-4
he	-5
at	-6
re	-7
▁s	-8
or	-9
▁c	-10
▁the	-11
en	-12
es	-13
▁o	-14
al	-15
ed	-16
it	-17
is	-18
ion	-19
▁p	-20
an	-21
ing	-22
ic	-23
▁in	-24
▁an	-25
▁d	-26
▁of	-27
▁m	-28
ro	-29
▁b	-30
le	-31
▁f	-32
▁w	-33
ar	-34
▁and	-35
▁to	-36
om	-37
st	-38
ent	-39
ct	-40
ation	-41
ut	-42
▁re	-43
as	-44
▁e	-45
ch	-46
et	-47
▁th	-48
us	-49
el	-50
▁n	-51
▁is	-52
▁l	-53
▁pro	-54
▁T	-55
ra	-56
im	-57
ly	-58
▁com	-59
▁h	-60
▁(	-61
un	-62
ce	-63
▁A	-64
il	-65
ul	-66
ers	-67
em	-68
ur	-69
▁be	-70
▁for	-71
▁I	-72
▁con	-73
ol	-74
ab	-75
▁as	-76
iv	-77
ig	-78
ith	-79
▁comp	-80
▁S	-81
pl	-82
▁us	-83
ot	-84
id	-85
od	-86
▁v	-87
▁on	-88
▁g	-89
▁that	-90
▁al	-91
yst	-92
▁st	-93
ess	-94
▁or	-95
▁de	-96
ow	-97
ag	-98
ity	-99
if	-100
▁C	-101
▁are	-102
▁The	-103
qu	-104
am	-105
ter	-106
her	-107
ect	-108
▁ex	-109
▁ma	-110
ir	-111
▁with	-112
▁su	-113
▁dat	-114
ment	-115
ist	-116
ec	-117
ical	-118
▁by	-119
ystem	-120
og	-121
res	-122
▁In	-123
ac	-124
▁M	-125
se	-126
pt	-127
um	-128
for	-129
ver	-130
▁can	-131
▁comput	-132
ate	-133
▁system	-134
▁wh	-135
▁it	-136
ad	-137
▁P	-138
iz	-139
per	-140
oc	-141
ction	-142
cess	-143
ies	-144
ations	-145
▁D	-146
ine	-147
▁data	-148
▁1	-149
ple	-150
ore	-151
form	-152
ve	-153
ib	-154
ial	-155
are	-156
ud	-157
ain	-158
est	-159
▁{	-160
ork	-161
▁en	-162
ang	-163
ure	-164
▁cont	-165
▁F	-166
age	-167
▁2	-168
▁B	-169
▁E	-170
op	-171
os	-172
rom	-173
etw	-174
ich	-175
ive	-176
▁ap	-177
▁"	-178
▁un	-179
and	-180
▁im	-181
▁at	-182
▁sp	-183
▁R	-184
▁H	-185
ms	-186
▁r	-187
▁int	-188
ant	-189
▁k	-190
ory	-191
▁G	-192
ated	-193
▁from	-194
so	-195
ard	-196
ay	-197
▁L	-198
▁which	-199
▁mod	-200
▁le	-201
ult	-202
ual	-203
able	-204
▁inc	-205
fer	-206
ru	-207
▁inter	-208
▁dev	-209
ans	-210
ence	-211
▁W	-212
ph	-213
art	-214
▁ne	-215
ics	-216
ther	-217
▁not	-218
ition	-219
ware	-220
du	-221
ign	-222
ort	-223
ge	-224
▁so	-225
▁{\	-226
▁N	-227
ram	-228
all	-229
ech	-230
▁such	-231
▁se	-232
▁ac	-233
▁cl	-234
▁ha	-235
▁O	-236
ost	-237
ft	-238
▁used	-239
▁all	-240
▁ad	-241
ire	-242
put	-243
▁process	-244
▁man	-245
ispl	-246
).	-247
ack	-248
ome	-249
plic	-250
▁was	-251
▁20	-252
yle	-253
ase	-254
▁prob	-255
▁des	-256
▁systems	-257
ous	-258
▁have	-259
etwork	-260
ility	-261
▁computer	-262
ug	-263
▁tr	-264
▁ch	-265
ach	-266
▁prog	-267
igh	-268
pro	-269
ex	-270
ific	-271
▁model	-272
angu	-273
end	-274
displ	-275
ayst	-276
aystyle	-277
displaystyle	-278
▁U	-279
ile	-280
▁sc	-281
▁network	-282
▁ar	-283
▁19	-284
ke	-285
th	-286
ber	-287
oun	-288
yp	-289
▁Th	-290
▁qu	-291
ere	-292
ener	-293
▁per	-294
▁set	-295
▁langu	-296
ance	-297
▁comm	-298
der	-299
ell	-300
▁also	-301
▁use	-302
),	-303
ff	-304
ide	-305
▁has	-306
raph	-307
act	-308
ill	-309
ning	-310
ions	-311
lud	-312
olog	-313
▁this	-314
ors	-315
▁sh	-316
▁oper	-317
ary	-318
ri	-319
ass	-320
ry	-321
formation	-322
}}	-323
rib	-324
ating	-325
arch	-326
port	-327
hen	-328
ys	-329
gor	-330
elop	-331
ased	-332
▁more	-333
▁includ	-334
▁trans	-335
ip	-336
ely	-337
ap	-338
ftware	-339
ice	-340
mat	-341
▁res	-342
▁dis	-343
echn	-344
ime	-345
_{	-346
▁other	-347
ces	-348
▁gener	-349
▁one	-350
▁program	-351
ject	-352
▁develop	-353
here	-354
up	-355
ari	-356
ens	-357
▁proble	-358
▁applic	-359
ugh	-360
▁sec	-361
erv	-362
▁may	-363
▁its	-364
ame	-365
▁tra	-366
ices	-367
▁mach	-368
▁rec	-369
▁ab	-370
gorith	-371
▁pre	-372
ability	-373
ress	-374
oul	-375
ages	-376
ould	-377
▁part	-378
▁met	-379
▁This	-380
▁dif	-381
ust	-382
▁exam	-383
ep	-384
▁requ	-385
ern	-386
▁ro	-387
now	-388
▁prov	-389
ational	-390
▁aut	-391
ord	-392
▁rel	-393
ks	-394
▁V	-395
▁)	-396
tern	-397
▁techn	-398
ext	-399
▁information	-400
int	-401
ace	-402
▁algorith	-403
▁typ	-404
ization	-405
▁,	-406
▁att	-407
▁cons	-408
▁software	-409
▁fun	-410
▁their	-411
ient	-412
ight	-413
urity	-414
▁Com	-415
▁lear	-416
▁inst	-417
rol	-418
ically	-419
ures	-420
eg	-421
fin	-422
▁mat	-423
▁num	-424
out	-425
ates	-426
▁J	-427
▁he	-428
▁but	-429
hod	-430
ruct	-431
ub	-432
ail	-433
ced	-434
ew	-435
▁design	-436
▁sim	-437
▁ob	-438
▁pr	-439
▁spec	-440
ue	-441
▁some	-442
▁method	-443
▁know	-444
oo	-445
ctions	-446
ments	-447
▁form	-448
erm	-449
▁datab	-450
▁mult	-451
00	-452
ock	-453
▁me	-454
ite	-455
▁language	-456
▁ev	-457
▁add	-458
ten	-459
▁example	-460
▁ind	-461
uring	-462
▁time	-463
▁comple	-464
▁out	-465
▁anal	-466
▁machine	-467
av	-468
▁into	-469
▁K	-470
▁pl	-471
ular	-472
▁dec	-473
irst	-474
ribut	-475
▁differ	-476
▁mem	-477
ret	-478
ible	-479
▁For	-480
resent	-481
een	-482
ized	-483
▁control	-484
▁do	-485
ology	-486
▁vari	-487
etween	-488
▁been	-489
▁using	-490
ong	-491
▁than	-492
▁access	-493
▁learning	-494
ally	-495
▁St	-496
ode	-497
rypt	-498
▁over	-499
▁between	-500
▁An	-501
▁we	-502
▁dist	-503
▁many	-504
▁call	-505
▁perform	-506
▁test	-507
▁they	-508
▁first	-509
hed	-510
▁ass	-511
▁x	-512
ied	-513
ities	-514
ia	-515
ict	-516
cy	-517
▁real	-518
▁theory	-519
▁em	-520
ind	-521
▁disc	-522
▁ph	-523
▁\	-524
▁rep	-525
nt	-526
king	-527
▁were	-528
▁201	-529
▁bec	-530
low	-531
ast	-532
▁work	-533
▁graph	-534
▁sub	-535
ases	-536
▁ent	-537
▁It	-538
cept	-539
▁lar	-540
▁where	-541
▁multi	-542
wo	-543
irt	-544
ose	-545
▁serv	-546
ural	-547
ents	-548
▁y	-549
▁programm	-550
vel	-551
▁each	-552
▁log	-553
▁=	-554
ract	-555
▁these	-556
ert	-557
ative	-558
▁allow	-559
▁only	-560
les	-561
▁ke	-562
▁val	-563
▁different	-564
ree	-565
▁memory	-566
▁security	-567
▁Al	-568
▁contain	-569
irtual	-570
oss	-571
ery	-572
aus	-573
▁any	-574
▁sup	-575
hes	-576
ision	-577
▁prot	-578
▁defin	-579
▁Un	-580
▁most	-581
iel	-582
▁cre	-583
▁appro	-584
ines	-585
plement	-586
lect	-587
hemat	-588
▁under	-589
led	-590
▁exp	-591
ining	-592
rit	-593
▁par	-594
▁two	-595
▁eff	-596
▁applications	-597
▁if	-598
▁inv	-599
▁class	-600
▁called	-601
ike	-602
ator	-603
▁problem	-604
▁det	-605
▁bl	-606
▁when	-607
ield	-608
▁sy	-609
ount	-610
▁sol	-611
▁database	-612
▁X	-613
▁often	-614
its	-615
ident	-616
▁Pro	-617
▁stat	-618
▁produ	-619
▁3	-620
ysis	-621
PU	-622
▁–	-623
▁rese	-624
ize	-625
▁fe	-626
▁j	-627
▁number	-628
▁include	-629
gan	-630
▁implement	-631
▁research	-632
rough	-633
▁function	-634
over	-635
▁require	-636
▁represent	-637
ubl	-638
ob	-639
▁need	-640
ond	-641
▁col	-642
▁algorithms	-643
▁reg	-644
▁up	-645
▁there	-646
▁hard	-647
ever	-648
ually	-649
ld	-650
ov	-651
▁stud	-652
▁provid	-653
uman	-654
ev	-655
▁models	-656
▁distribut	-657
▁new	-658
▁user	-659
iqu	-660
▁autom	-661
ogn	-662
▁.	-663
gine	-664
itect	-665
▁common	-666
iven	-667
ience	-668
▁object	-669
▁methods	-670
▁computing	-671
ement	-672
pos	-673
rop	-674
ower	-675
▁file	-676
oth	-677
arly	-678
▁incre	-679
19	-680
▁desc	-681
ound	-682
und	-683
▁attack	-684
nect	-685
▁acc	-686
ution	-687
▁virtual	-688
ata	-689
our	-690
ructure	-691
▁enc	-692
andard	-693
▁programming	-694
▁sign	-695
▁act	-696
▁problems	-697
▁opt	-698
chitect	-699
▁Comput	-700
▁result	-701
▁mathemat	-702
ak	-703
▁Con	-704
▁run	-705
▁languages	-706
uch	-707
▁po	-708
▁code	-709
▁will	-710
▁complex	-711
▁field	-712
▁large	-713
▁through	-714
▁spe	-715
ron	-716
▁integ	-717
▁same	-718
.,	-719
irect	-720
▁support	-721
unic	-722
one	-723
urre	-724
▁ext	-725
ivers	-726
▁am	-727
▁input	-728
▁analysis	-729
▁0	-730
ings	-731
ough	-732
▁AI	-733
▁networks	-734
▁development	-735
▁_{	-736
sour	-737
▁poss	-738
▁then	-739
▁known	-740
▁chang	-741
ise	-742
▁how	-743
▁devices	-744
▁application	-745
pert	-746
▁interp	-747
ples	-748
ences	-749
▁well	-750
▁based	-751
QL	-752
ix	-753
ear	-754
ential	-755
ention	-756
bers	-757
ency	-758
▁rob	-759
ause	-760
ering	-761
ernel	-762
▁quant	-763
▁architect	-764
▁operating	-765
based	-766
▁manag	-767
de	-768
ful	-769
▁key	-770
▁publ	-771
ues	-772
▁fin	-773
other	-774
plo	-775
▁ag	-776
▁no	-777
icro	-778
▁tas	-779
20	-780
".	-781
▁hardware	-782
▁multiple	-783
▁algorithm	-784
▁computers	-785
ier	-786
▁equ	-787
▁pat	-788
▁resp	-789
▁ident	-790
▁cor	-791
ols	-792
▁sm	-793
itional	-794
ons	-795
oud	-796
▁gro	-797
▁comb	-798
▁conc	-799
▁connect	-800
▁processing	-801
als	-802
▁av	-803
▁like	-804
▁partic	-805
orld	-806
ider	-807
▁way	-808
ined	-809
▁human	-810
com	-811
▁On	-812
ification	-813
vir	-814
ify	-815
▁As	-816
▁En	-817
▁fol	-818
viron	-819
▁high	-820
▁users	-821
▁recogn	-822
ish	-823
read	-824
▁would	-825
▁ser	-826
▁Turing	-827
▁engine	-828
▁i	-829
▁robot	-830
▁instru	-831
▁Ex	-832
inear	-833
ograph	-834
ark	-835
geb	-836
tic	-837
▁IS	-838
ann	-839
▁standard	-840
▁loc	-841
inu	-842
▁exec	-843
pen	-844
ilities	-845
▁communic	-846
▁about	-847
▁bu	-848
▁ed	-849
omet	-850
▁block	-851
te	-852
▁both	-853
▁const	-854
iew	-855
▁environ	-856
▁them	-857
▁space	-858
▁Intern	-859
▁follow	-860
▁statist	-861
▁Re	-862
▁could	-863
▁These	-864
▁resour	-865
the	-866
▁9	-867
ively	-868
ledge	-869
get	-870
▁How	-871
ection	-872
ited	-873
▁cap	-874
▁Ch	-875
▁organ	-876
▁general	-877
ital	-878
▁testing	-879
▁ra	-880
text	-881
▁feat	-882
action	-883
▁CPU	-884
▁redu	-885
{\	-886
olv	-887
▁direct	-888
▁web	-889
▁including	-890
rodu	-891
ellig	-892
▁sequ	-893
▁crypt	-894
ince	-895
▁possible	-896
gebra	-897
▁meas	-898
▁particular	-899
▁state	-900
▁cy	-901
ified	-902
any	-903
▁co	-904
▁pers	-905
▁performance	-906
rams	-907
▁adv	-908
▁optim	-909
▁Q	-910
oci	-911
ables	-912
▁phys	-913
▁being	-914
▁technology	-915
BM	-916
aw	-917
▁str	-918
▁integr	-919
▁consider	-920
▁power	-921
▁bi	-922
▁techniqu	-923
ism	-924
▁while	-925
▁go	-926
ater	-927
▁interpret	-928
▁pred	-929
▁given	-930
▁describ	-931
mb	-932
▁hand	-933
▁pract	-934
▁developed	-935
▁sing	-936
▁term	-937
▁Y	-938
orm	-939
istic	-940
▁vers	-941
▁order	-942
yn	-943
math	-944
▁lay	-945
▁read	-946
▁stor	-947
str	-948
net	-949
▁non	-950
▁impro	-951
▁level	-952
imes	-953
▁kernel	-954
▁output	-955
▁However	-956
▁operations	-957
8-	-958
fore	-959
▁199	-960
▁back	-961
AN	-962
▁dep	-963
BN	-964
elf	-965
▁single	-966
ploy	-967
icient	-968
▁There	-969
▁specific	-970
cc	-971
par	-972
ious	-973
ality	-974
alle	-975
▁200	-976
▁med	-977
▁word	-978
▁address	-979
ie	-980
▁text	-981
",	-982
▁rem	-983
▁cent	-984
▁buil	-985
▁quantum	-986
PI	-987
erg	-988
▁priv	-989
▁concept	-990
▁probability	-991
▁exist	-992
ets	-993
▁dig	-994
▁ISBN	-995
▁nat	-996
▁fact	-997
allel	-998
▁cloud	-999
ward	-1000
urrent	-1001
▁avail	-1002
▁typically	-1003
▁provide	-1004
con	-1005
ric	-1006
▁fil	-1007
▁lim	-1008
▁(19	-1009
to	-1010
eng	-1011
ner	-1012
▁Ar	-1013
ling	-1014
▁app	-1015
▁est	-1016
▁vect	-1017
▁knowledge	-1018
▁ins	-1019
▁image	-1020
▁graphics	-1021
▁training	-1022
▁}	-1023
ives	-1024
▁programs	-1025
▁even	-1026
▁rele	-1027
▁sets	-1028
▁Ap	-1029
▁effect	-1030
▁management	-1031
ivid	-1032
▁value	-1033
▁science	-1034
▁without	-1035
ook	-1036
xim	-1037
ecurity	-1038
olic	-1039
▁structure	-1040
▁art	-1041
▁mess	-1042
ropy	-1043
ertain	-1044
▁within	-1045
▁storage	-1046
cal	-1047
ather	-1048
▁prev	-1049
▁early	-1050
▁logic	-1051
elligence	-1052
inc	-1053
red	-1054
▁conf	-1055
▁type	-1056
▁Internet	-1057
▁202	-1058
▁predict	-1059
▁Computer	-1060
▁processes	-1061
aces	-1062
ared	-1063
▁various	-1064
▁usually	-1065
▁types	-1066
▁introdu	-1067
TT	-1068
ma	-1069
fic	-1070
▁Some	-1071
ference	-1072
oT	-1073
▁algebra	-1074
ian	-1075
▁mon	-1076
▁case	-1077
cle	-1078
▁had	-1079
ially	-1080
▁make	-1081
▁sever	-1082
▁compil	-1083
▁found	-1084
▁architecture	-1085
ake	-1086
iss	-1087
very	-1088
▁API	-1089
ished	-1090
▁import	-1091
▁defined	-1092
chain	-1093
ently	-1094
▁main	-1095
▁recognition	-1096
cing	-1097
▁expl	-1098
▁uses	-1099
▁small	-1100
ene	-1101
▁store	-1102
▁study	-1103
▁interf	-1104
▁distributed	-1105
▁Int	-1106
▁services	-1107
)}	-1108
▁er	-1109
lean	-1110
▁cost	-1111
ss	-1112
pec	-1113
▁end	-1114
urther	-1115
▁parallel	-1116
igin	-1117
▁must	-1118
10	-1119
▁−	-1120
gre	-1121
▁te	-1122
echan	-1123
▁Data	-1124
▁sour	-1125
▁because	-1126
▁reality	-1127
▁environment	-1128
ran	-1129
ules	-1130
▁what	-1131
▁person	-1132
▁several	-1133
aches	-1134
ional	-1135
por	-1136
fter	-1137
▁beh	-1138
ificial	-1139
▁neural	-1140
^{	-1141
ript	-1142
▁determ	-1143
▁another	-1144
old	-1145
▁project	-1146
TTP	-1147
▁Se	-1148
▁Boo	-1149
▁[	-1150
serv	-1151
▁bas	-1152
▁ret	-1153
▁who	-1154
andom	-1155
▁198	-1156
▁execut	-1157
▁functions	-1158
▁complexity	-1159
▁engineering	-1160
wn	-1161
ccess	-1162
abilities	-1163
▁machines	-1164
▁linear	-1165
▁char	-1166
▁involv	-1167
ynam	-1168
▁inf	-1169
▁sur	-1170
▁consist	-1171
▁available	-1172
▁techniques	-1173
▁ele	-1174
inator	-1175
▁point	-1176
▁physical	-1177
oad	-1178
▁sens	-1179
▁world	-1180
▁public	-1181
▁theore	-1182
ays	-1183
ety	-1184
▁Ad	-1185
cial	-1186
▁view	-1187
▁depend	-1188
▁request	-1189
▁approach	-1190
▁resources	-1191
ral	-1192
▁writ	-1193
▁micro	-1194
▁entropy	-1195
▁4	-1196
▁97	-1197
▁pa	-1198
rete	-1199
▁tasks	-1200
ulation	-1201
▁device	-1202
▁should	-1203
pect	-1204
▁compon	-1205
▁Cl	-1206
▁Wh	-1207
▁car	-1208
▁def	-1209
▁scal	-1210
ologies	-1211
ik	-1212
▁z	-1213
▁fl	-1214
▁IoT	-1215
▁197	-1216
stand	-1217
▁exper	-1218
▁simil	-1219
▁digital	-1220
▁blockchain	-1221
irc	-1222
not	-1223
reat	-1224
▁index	-1225
▁formal	-1226
▁product	-1227
of	-1228
▁head	-1229
▁System	-1230
▁record	-1231
itt	-1232
▁dom	-1233
epend	-1234
▁does	-1235
▁origin	-1236
▁HTTP	-1237
▁analy	-1238
▁search	-1239
eb	-1240
▁made	-1241
▁Boolean	-1242
▁service	-1243
SQL	-1244
acy	-1245
ness	-1246
▁those	-1247
itions	-1248
▁databases	-1249
▁mechan	-1250
▁objects	-1251
ange	-1252
rans	-1253
iness	-1254
▁computational	-1255
eo	-1256
▁bus	-1257
itive	-1258
▁charact	-1259
▁express	-1260
hor	-1261
rast	-1262
▁ter	-1263
▁encrypt	-1264
ken	-1265
▁size	-1266
▁random	-1267
▁err	-1268
iversity	-1269
ps	-1270
hip	-1271
▁pop	-1272
▁rev	-1273
▁list	-1274
▁show	-1275
ames	-1276
avi	-1277
▁sa	-1278
▁978-	-1279
▁reas	-1280
▁every	-1281
▁since	-1282
▁important	-1283
▁mathematical	-1284
pr	-1285
▁Go	-1286
▁ref	-1287
▁query	-1288
▁automat	-1289
▁measure	-1290
▁designed	-1291
▁μ	-1292
▁De	-1293
▁min	-1294
▁long	-1295
▁elect	-1296
▁cryptograph	-1297
▁tru	-1298
arget	-1299
▁context	-1300
▁related	-1301
▁pur	-1302
round	-1303
▁speech	-1304
ck	-1305
met	-1306
ended	-1307
ither	-1308
level	-1309
▁required	-1310
ping	-1311
tain	-1312
▁One	-1313
▁che	-1314
▁lin	-1315
▁Post	-1316
▁indu	-1317
▁table	-1318
."	-1319
mu	-1320
▁If	-1321
▁law	-1322
▁via	-1323
hedul	-1324
▁special	-1325
▁dr	-1326
ised	-1327
line	-1328
▁symb	-1329
▁very	-1330
▁vide	-1331
▁attacks	-1332
ding	-1333
time	-1334
▁plan	-1335
ividual	-1336
▁concern	-1337
▁provides	-1338
bit	-1339
less	-1340
asing	-1341
▁propos	-1342
▁values	-1343
▁features	-1344
▁intelligence	-1345
▁source	-1346
▁vector	-1347
▁following	-1348
-1	-1349
▁considered	-1350
▁communication	-1351
ull	-1352
}}}	-1353
ense	-1354
▁open	-1355
▁continu	-1356
▁⁡	-1357
ross	-1358
ving	-1359
▁bro	-1360
ators	-1361
eople	-1362
▁appl	-1363
▁separ	-1364
▁tools	-1365
cul	-1366
ocu	-1367
▁deep	-1368
▁similar	-1369
▁success	-1370
▁So	-1371
ected	-1372
▁Comm	-1373
▁group	-1374
▁signific	-1375
▁prim	-1376
ficult	-1377
▁start	-1378
▁bre	-1379
▁cal	-1380
▁target	-1381
▁pattern	-1382
▁individual	-1383
▁instruction	-1384
ick	-1385
rid	-1386
▁et	-1387
▁version	-1388
cl	-1389
ger	-1390
▁(2	-1391
▁imp	-1392
▁vis	-1393
▁find	-1394
▁difficult	-1395
▁To	-1396
▁fram	-1397
hentic	-1398
though	-1399
▁corre	-1400
▁maint	-1401
▁amount	-1402
▁certain	-1403
▁content	-1404
▁(20	-1405
ecess	-1406
▁polic	-1407
rior	-1408
umer	-1409
▁protoc	-1410
60	-1411
▁sem	-1412
▁modern	-1413
▁sequence	-1414
},	-1415
ires	-1416
▁occ	-1417
▁own	-1418
▁pass	-1419
▁terms	-1420
▁allows	-1421
▁associ	-1422
io	-1423
urn	-1424
▁hel	-1425
▁natural	-1426
▁propert	-1427
▁results	-1428
▁understand	-1429
2,	-1430
▁IBM	-1431
▁dem	-1432
▁They	-1433
▁Inter	-1434
▁finite	-1435
▁Res	-1436
▁iss	-1437
overn	-1438
▁images	-1439
▁his	-1440
▁wid	-1441
▁behavi	-1442
▁server	-1443
ferences	-1444
▁mathematics	-1445
..	-1446
▁+	-1447
ired	-1448
▁SQL	-1449
▁bel	-1450
▁big	-1451
▁schedul	-1452
▁University	-1453
min	-1454
odes	-1455
ustom	-1456
▁much	-1457
ibility	-1458
ructures	-1459
▁efficient	-1460
1.	-1461
▁When	-1462
▁area	-1463
▁reason	-1464
ditional	-1465
▁significant	-1466
rix	-1467
empt	-1468
istory	-1469
▁people	-1470
▁created	-1471
▁numbers	-1472
ove	-1473
▁del	-1474
▁Many	-1475
▁conv	-1476
ternal	-1477
▁after	-1478
▁rather	-1479
▁second	-1480
ocus	-1481
▁whe	-1482
1,	-1483
nal	-1484
▁docu	-1485
▁less	-1486
▁secure	-1487
▁relations	-1488
▁transform	-1489
ape	-1490
ears	-1491
oder	-1492
▁circ	-1493
▁lead	-1494
▁Trans	-1495
▁video	-1496
izations	-1497
ache	-1498
▁card	-1499
▁files	-1500
▁changes	-1501
▁generally	-1502
▁computation	-1503
▁5	-1504
imens	-1505
olution	-1506
▁business	-1507
▁implementation	-1508
alu	-1509
▁port	-1510
▁discrete	-1511
▁independ	-1512
apt	-1513
▁Sc	-1514
▁US	-1515
▁ens	-1516
▁dynam	-1517
▁rules	-1518
▁either	-1519
▁current	-1520
OS	-1521
ox	-1522
pose	-1523
▁top	-1524
atform	-1525
▁during	-1526
▁expert	-1527
▁transl	-1528
otential	-1529
▁decision	-1530
▁eas	-1531
ances	-1532
▁interface	-1533
▁artificial	-1534
4,	-1535
▁mov	-1536
▁focus	-1537
▁layer	-1538
▁character	-1539
▁technologies	-1540
0,	-1541
1-	-1542
LM	-1543
lying	-1544
▁estim	-1545
▁itself	-1546
▁authentic	-1547
▁|	-1548
▁crit	-1549
▁fail	-1550
▁cyber	-1551
▁three	-1552
▁potential	-1553
▁statistical	-1554
▁distribution	-1555
tt	-1556
urs	-1557
▁Sh	-1558
ived	-1559
▁lab	-1560
▁mark	-1561
▁norm	-1562
▁subs	-1563
▁task	-1564
▁unit	-1565
ording	-1566
▁means	-1567
▁refer	-1568
▁custom	-1569
▁operation	-1570
▁ide	-1571
anies	-1572
inary	-1573
▁cases	-1574
▁somet	-1575
▁become	-1576
▁client	-1577
▁necess	-1578
▁robots	-1579
▁requires	-1580
gram	-1581
▁present	-1582
▁introduced	-1583
▁Z	-1584
▁Other	-1585
actions	-1586
▁instructions	-1587
▁6	-1588
ateg	-1589
gest	-1590
▁Mat	-1591
▁might	-1592
▁calcul	-1593
▁containers	-1594
▁encryption	-1595
ou	-1596
▁fre	-1597
▁Micro	-1598
ination	-1599
▁vision	-1600
▁statistics	-1601
ins	-1602
ipl	-1603
inci	-1604
izing	-1605
thers	-1606
▁govern	-1607
▁whether	-1608
▁increase	-1609
ren	-1610
▁gu	-1611
▁cop	-1612
oding	-1613
▁fast	-1614
▁step	-1615
▁later	-1616
ici	-1617
rim	-1618
ogle	-1619
force	-1620
ivity	-1621
▁take	-1622
▁chall	-1623
▁domain	-1624
▁instance	-1625
ws	-1626
man	-1627
▁sw	-1628
amet	-1629
▁sam	-1630
▁learn	-1631
▁container	-1632
▁components	-1633
att	-1634
jor	-1635
ental	-1636
ework	-1637
▁Google	-1638
▁change	-1639
▁representation	-1640
0-	-1641
ots	-1642
oper	-1643
▁pos	-1644
▁ris	-1645
lection	-1646
▁improv	-1647
ological	-1648
▁interaction	-1649
ead	-1650
ilit	-1651
itor	-1652
▁ach	-1653
ulner	-1654
▁mean	-1655
▁displ	-1656
▁quest	-1657
▁before	-1658
▁Software	-1659
▁continuous	-1660
els	-1661
perv	-1662
▁Mach	-1663
▁deploy	-1664
▁structures	-1665
ably	-1666
▁Mod	-1667
▁abst	-1668
▁among	-1669
▁count	-1670
▁offer	-1671
▁speed	-1672
▁applied	-1673
▁commonly	-1674
▁companies	-1675
ta	-1676
}\	-1677
ands	-1678
▁hig	-1679
▁map	-1680
▁upd	-1681
▁major	-1682
▁prior	-1683
▁cannot	-1684
▁making	-1685
▁others	-1686
▁still	-1687
▁thread	-1688
▁message	-1689
▁running	-1690
▁interact	-1691
rite	-1692
▁emb	-1693
▁fac	-1694
ocial	-1695
▁report	-1696
▁though	-1697
▁popular	-1698
EE	-1699
▁es	-1700
▁became	-1701
▁maintain	-1702
▁relational	-1703
▁Aut	-1704
▁low	-1705
▁off	-1706
indow	-1707
▁able	-1708
mented	-1709
▁'	-1710
arl	-1711
opt	-1712
▁ge	-1713
oice	-1714
▁arg	-1715
▁etc	-1716
▁stored	-1717
▁definition	-1718
6,	-1719
med	-1720
sequ	-1721
▁Web	-1722
▁event	-1723
▁simple	-1724
▁connected	-1725
▁described	-1726
ean	-1727
ute	-1728
like	-1729
▁LLM	-1730
▁due	-1731
▁see	-1732
▁init	-1733
▁just	-1734
▁examples	-1735
▁processor	-1736
▁variables	-1737
5,	-1738
ST	-1739
ule	-1740
alth	-1741
chron	-1742
▁analyz	-1743
▁original	-1744
▁published	-1745
ibr	-1746
back	-1747
ting	-1748
uber	-1749
▁limit	-1750
▁researchers	-1751
ble	-1752
oin	-1753
comput	-1754
▁cache	-1755
▁error	-1756
▁written	-1757
▁identify	-1758
▁increasing	-1759
▁8	-1760
BMS	-1761
onse	-1762
▁Des	-1763
ax	-1764
▁By	-1765
▁el	-1766
▁now	-1767
ately	-1768
▁paper	-1769
process	-1770
▁ability	-1771
▁correct	-1772
▁Security	-1773
▁addition	-1774
▁elements	-1775
):	-1776
ts	-1777
ash	-1778
▁10	-1779
▁Im	-1780
▁poly	-1781
▁synt	-1782
greSQL	-1783
illion	-1784
▁While	-1785
▁circu	-1786
NN	-1787
isf	-1788
abor	-1789
ches	-1790
▁gen	-1791
▁mot	-1792
anced	-1793
iev	-1794
▁New	-1795
▁sat	-1796
atory	-1797
istics	-1798
utions	-1799
▁local	-1800
▁vulner	-1801
▁provided	-1802
▁PostgreSQL	-1803
▁properties	-1804
2.	-1805
000	-1806
air	-1807
▁Inst	-1808
▁With	-1809
▁words	-1810
▁create	-1811
▁needed	-1812
▁princi	-1813
▁includes	-1814
▁requirements	-1815
▁AR	-1816
▁tak	-1817
▁solve	-1818
▁further	-1819
▁platform	-1820
▁Eu	-1821
▁di	-1822
ixed	-1823
▁bit	-1824
cking	-1825
tical	-1826
▁Exam	-1827
▁name	-1828
▁right	-1829
▁higher	-1830
forcement	-1831
▁framework	-1832
▁implemented	-1833
)=	-1834
)\	-1835
▁Jo	-1836
▁ut	-1837
earch	-1838
▁clust	-1839
▁United	-1840
▁attempt	-1841
▁feature	-1842
▁attention	-1843
CI	-1844
rm	-1845
netes	-1846
▁token	-1847
ression	-1848
▁Another	-1849
ubernetes	-1850
▁sometimes	-1851
SA	-1852
▁Us	-1853
ival	-1854
lish	-1855
▁ver	-1856
▁help	-1857
▁again	-1858
▁alloc	-1859
▁minim	-1860
▁numer	-1861
▁across	-1862
▁fields	-1863
▁proced	-1864
▁practice	-1865
▁Kubernetes	-1866
▁processors	-1867
ges	-1868
fess	-1869
▁sent	-1870
▁short	-1871
▁behavior	-1872
▁cryptography	-1873
ym	-1874
rel	-1875
ants	-1876
ffic	-1877
ists	-1878
▁Sim	-1879
ipher	-1880
ission	-1881
▁range	-1882
▁author	-1883
▁useful	-1884
▁paramet	-1885
▁privacy	-1886
▁involves	-1887
▁associated	-1888
3.	-1889
hn	-1890
ily	-1891
▁Pr	-1892
▁syn	-1893
arily	-1894
▁Most	-1895
▁clos	-1896
dition	-1897
ements	-1898
indows	-1899
▁mining	-1900
▁normal	-1901
▁observ	-1902
plication	-1903
▁personal	-1904
ler	-1905
own	-1906
▁hy	-1907
oard	-1908
rupt	-1909
▁Dat	-1910
▁Open	-1911
▁links	-1912
▁compiler	-1913
▁directly	-1914
▁previous	-1915
▁Qu	-1916
▁GAN	-1917
▁led	-1918
uture	-1919
▁maxim	-1920
▁states	-1921
▁visual	-1922
▁descript	-1923
▁approaches	-1924
▁optimization	-1925
ood	-1926
ream	-1927
soft	-1928
▁See	-1929
mathb	-1930
▁Europ	-1931
▁matrix	-1932
▁central	-1933
pe	-1934
isc	-1935
mar	-1936
inux	-1937
▁saf	-1938
▁unt	-1939
ength	-1940
▁policy	-1941
▁satisf	-1942
▁Research	-1943
▁approxim	-1944
▁response	-1945
bersecurity	-1946
rastructure	-1947
3,	-1948
▁]	-1949
ply	-1950
orph	-1951
▁bet	-1952
▁line	-1953
▁employ	-1954
▁Windows	-1955
▁experim	-1956
▁execution	-1957
7,	-1958
oph	-1959
pri	-1960
▁GPU	-1961
▁aim	-1962
▁team	-1963
▁areas	-1964
▁evalu	-1965
▁frequ	-1966
▁detail	-1967
▁semant	-1968
▁widely	-1969
▁collect	-1970
▁monitor	-1971
▁complete	-1972
▁released	-1973
▁separate	-1974
▁solution	-1975
▁combinator	-1976
4.	-1977
eh	-1978
xi	-1979
uss	-1980
oint	-1981
ries	-1982
▁196	-1983
isions	-1984
▁embed	-1985
▁years	-1986
▁Further	-1987
▁respons	-1988
▁additional	-1989
head	-1990
such	-1991
aging	-1992
▁remain	-1993
▁shared	-1994
▁social	-1995
fficient	-1996
▁authentication	-1997
sw	-1998
ane	-1999
▁VR	-2000
load	-2001
medi	-2002
▁dra	-2003
▁leg	-2004
▁diag	-2005
▁reli	-2006
▁sche	-2007
▁thus	-2008
ierarch	-2009
▁commer	-2010
▁Machine	-2011
▁allowing	-2012
▁concepts	-2013
▁protocol	-2014
kes	-2015
▁Am	-2016
▁Cy	-2017
iver	-2018
onom	-2019
stry	-2020
▁Dev	-2021
▁few	-2022
▁basic	-2023
▁aspect	-2024
▁config	-2025
▁obtain	-2026
▁improve	-2027
5.	-2028
DN	-2029
ein	-2030
lob	-2031
ote	-2032
resp	-2033
▁lat	-2034
▁vol	-2035
urren	-2036
▁Mult	-2037
▁caus	-2038
▁repl	-2039
▁Linux	-2040
▁built	-2041
▁nodes	-2042
▁units	-2043
iciency	-2044
▁around	-2045
▁entire	-2046
pecially	-2047
▁challeng	-2048
▁protection	-2049
▁relationship	-2050
PT	-2051
SI	-2052
ched	-2053
ergy	-2054
ffor	-2055
ocks	-2056
vant	-2057
▁ann	-2058
aking	-2059
ching	-2060
raint	-2061
right	-2062
▁layers	-2063
▁trained	-2064
imensional	-2065
sy	-2066
ley	-2067
log	-2068
▁Ph	-2069
xiom	-2070
ocker	-2071
▁best	-2072
▁coll	-2073
▁gain	-2074
gether	-2075
▁adopt	-2076
▁estab	-2077
▁simul	-2078
▁write	-2079
▁market	-2080
▁complet	-2081
▁display	-2082
▁document	-2083
▁interest	-2084
▁proposed	-2085
▁resource	-2086
▁together	-2087
▁Information	-2088
▁architectures	-2089
aut	-2090
ded	-2091
ury	-2092
way	-2093
▁op	-2094
▁sit	-2095
▁kind	-2096
▁Datab	-2097
▁Techn	-2098
▁forms	-2099
▁future	-2100
▁private	-2101
▁strateg	-2102
▁government	-2103
6.	-2104
by	-2105
idd	-2106
ium	-2107
angle	-2108
▁swit	-2109
▁least	-2110
▁manip	-2111
▁media	-2112
▁needs	-2113
▁proof	-2114
ugmented	-2115
▁Microsoft	-2116
AC	-2117
atic	-2118
brid	-2119
ingu	-2120
▁hyp	-2121
▁bran	-2122
▁disk	-2123
▁load	-2124
plicit	-2125
▁Since	-2126
▁assign	-2127
▁better	-2128
▁health	-2129
▁discipl	-2130
▁medical	-2131
▁hierarch	-2132
▁integration	-2133
▁transaction	-2134
▁organizations	-2135
0.	-2136
9,	-2137
oid	-2138
ped	-2139
rem	-2140
▁Ne	-2141
▁prom	-2142
▁Press	-2143
▁until	-2144
unction	-2145
▁ensure	-2146
▁account	-2147
▁generate	-2148
▁standards	-2149
wh	-2150
xt	-2151
ked	-2152
val	-2153
edia	-2154
▁ess	-2155
aries	-2156
orpor	-2157
▁rate	-2158
▁rece	-2159
▁axiom	-2160
▁build	-2161
▁Mathemat	-2162
inforcement	-2163
▁developers	-2164
uf	-2165
ves	-2166
▁Pl	-2167
side	-2168
vers	-2169
▁(201	-2170
▁libr	-2171
▁Graph	-2172
▁States	-2173
▁extens	-2174
▁however	-2175
▁instead	-2176
▁Examples	-2177
▁patterns	-2178
▁environments	-2179
AT	-2180
lu	-2181
▁→	-2182
isms	-2183
▁lik	-2184
▁game	-2185
▁goal	-2186
▁grow	-2187
▁conver	-2188
▁reduce	-2189
▁explain	-2190
▁especially	-2191
▁organization	-2192
▁virtualization	-2193
7.	-2194
▁Man	-2195
▁mal	-2196
eries	-2197
▁John	-2198
▁free	-2199
▁tape	-2200
▁ways	-2201
mathrm	-2202
▁scient	-2203
▁History	-2204
▁respect	-2205
▁industry	-2206
▁independent	-2207
▁particularly	-2208
aps	-2209
enc	-2210
▁aff	-2211
ronic	-2212
▁copy	-2213
▁next	-2214
▁pack	-2215
ithmet	-2216
▁demon	-2217
respond	-2218
▁attribut	-2219
▁concerns	-2220
▁capabilities	-2221
ee	-2222
▁cam	-2223
ounter	-2224
strict	-2225
▁basis	-2226
ruction	-2227
▁978-0-	-2228
▁Engine	-2229
▁altern	-2230
▁invest	-2231
▁meaning	-2232
▁working	-2233
▁discover	-2234
▁constraint	-2235
▁traditional	-2236
FS	-2237
rad	-2238
}}\	-2239
▁feed	-2240
▁valid	-2241
anguage	-2242
atively	-2243
▁accept	-2244
▁produce	-2245
▁traffic	-2246
▁demonstr	-2247
▁internal	-2248
▁variable	-2249
▁reasoning	-2250
▁correspond	-2251
▁efficiency	-2252
▁infrastructure	-2253
emb	-2254
▁At	-2255
ault	-2256
▁Typ	-2257
aring	-2258
ature	-2259
▁full	-2260
▁perm	-2261
finite	-2262
▁bound	-2263
▁action	-2264
▁larger	-2265
▁things	-2266
▁transm	-2267
▁against	-2268
▁profess	-2269
▁necessary	-2270
ird	-2271
tra	-2272
ways	-2273
obile	-2274
▁Cont	-2275
▁Mark	-2276
▁answ	-2277
▁host	-2278
▁laws	-2279
▁risk	-2280
▁ship	-2281
▁assum	-2282
▁equival	-2283
▁subject	-2284
▁measures	-2285
plications	-2286
8,	-2287
go	-2288
▁:	-2289
ave	-2290
ura	-2291
cale	-2292
duct	-2293
ison	-2294
izes	-2295
▁aud	-2296
▁ren	-2297
erial	-2298
iving	-2299
▁fund	-2300
▁path	-2301
aneous	-2302
▁consum	-2303
▁theorem	-2304
▁univers	-2305
▁Although	-2306
▁expected	-2307
▁construct	-2308
▁performed	-2309
ER	-2310
sc	-2311
umn	-2312
▁195	-2313
▁ful	-2314
▁too	-2315
annel	-2316
usion	-2317
▁(199	-2318
▁CPUs	-2319
▁Comp	-2320
▁true	-2321
▁hypot	-2322
▁times	-2323
▁Docker	-2324
▁geomet	-2325
▁refers	-2326
▁tables	-2327
▁Program	-2328
▁dynamic	-2329
▁prevent	-2330
▁servers	-2331
▁studies	-2332
▁transfer	-2333
▁integrated	-2334
▁successful	-2335
uc	-2336
enef	-2337
▁Acc	-2338
▁All	-2339
atics	-2340
▁DBMS	-2341
▁done	-2342
▁prec	-2343
▁emerg	-2344
▁makes	-2345
▁parts	-2346
▁simpl	-2347
▁smart	-2348
▁threat	-2349
▁limited	-2350
istr	-2351
most	-2352
▁Rec	-2353
▁enh	-2354
▁Serv	-2355
icated	-2356
▁heads	-2357
▁according	-2358
▁References	-2359
▁commercial	-2360
2-	-2361
know	-2362
riev	-2363
▁den	-2364
itted	-2365
▁argu	-2366
▁began	-2367
▁factor	-2368
▁symbol	-2369
▁company	-2370
▁external	-2371
▁messages	-2372
▁products	-2373
▁question	-2374
▁essential	-2375
ET	-2376
▁SDN	-2377
▁hum	-2378
▁job	-2379
▁Each	-2380
▁self	-2381
alysis	-2382
▁above	-2383
▁advant	-2384
▁series	-2385
▁signal	-2386
▁reading	-2387
▁National	-2388
▁restrict	-2389
▁synchron	-2390
▁collection	-2391
AI	-2392
▁&	-2393
word	-2394
iting	-2395
▁(200	-2396
▁Deep	-2397
▁down	-2398
▁flow	-2399
▁good	-2400
▁Gener	-2401
▁along	-2402
▁lower	-2403
▁return	-2404
▁abstract	-2405
▁critical	-2406
▁included	-2407
▁referred	-2408
▁practical	-2409
▁understanding	-2410
AM	-2411
▁No	-2412
▁sk	-2413
▁cell	-2414
▁rule	-2415
▁overl	-2416
▁binary	-2417
▁issues	-2418
▁select	-2419
pervised	-2420
▁hypothes	-2421
▁underlying	-2422
3-	-2423
ero	-2424
▁(1	-2425
aced	-2426
adem	-2427
ging	-2428
inal	-2429
omial	-2430
▁bits	-2431
▁rout	-2432
▁tele	-2433
▁humans	-2434
▁classes	-2435
▁primary	-2436
▁contains	-2437
dimensional	-2438
▁q	-2439
tal	-2440
kens	-2441
▁1970	-2442
▁activ	-2443
▁added	-2444
▁benef	-2445
▁Network	-2446
▁logical	-2447
▁arithmet	-2448
▁increased	-2449
▁classification	-2450
ega	-2451
ieve	-2452
ming	-2453
▁Ass	-2454
▁Met	-2455
▁Ora	-2456
lobal	-2457
▁Such	-2458
▁loss	-2459
▁role	-2460
▁tool	-2461
▁webs	-2462
ategor	-2463
▁exact	-2464
▁super	-2465
▁Linear	-2466
▁Oracle	-2467
▁formul	-2468
▁fundam	-2469
▁quality	-2470
▁generated	-2471
▁solutions	-2472
▁scheduling	-2473
▁interpretation	-2474
1}	-2475
ores	-2476
▁sum	-2477
▁enab	-2478
▁situ	-2479
▁tree	-2480
▁blocks	-2481
▁cipher	-2482
▁detect	-2483
▁weight	-2484
▁technique	-2485
▁translation	-2486
ML	-2487
ved	-2488
▁1.	-2489
▁Ev	-2490
acity	-2491
ifies	-2492
▁earl	-2493
▁keep	-2494
▁datas	-2495
ception	-2496
▁distin	-2497
▁energy	-2498
▁spaces	-2499
▁tokens	-2500
▁records	-2501
▁sensors	-2502
formatics	-2503
▁versions	-2504
▁mechanism	-2505
▁supported	-2506
aS	-2507
▁7	-2508
ars	-2509
ray	-2510
▁deg	-2511
reter	-2512
▁camer	-2513
▁games	-2514
▁schem	-2515
raction	-2516
▁faster	-2517
▁graphs	-2518
▁having	-2519
▁online	-2520
▁regard	-2521
▁Virtual	-2522
▁Database	-2523
▁determine	-2524
▁represented	-2525
▁He	-2526
ends	-2527
▁Eng	-2528
itute	-2529
poses	-2530
▁core	-2531
iented	-2532
▁broad	-2533
▁levels	-2534
▁century	-2535
▁discrim	-2536
▁executed	-2537
▁existing	-2538
▁requests	-2539
▁automaton	-2540
▁transactions	-2541
ll	-2542
}(	-2543
.).	-2544
olve	-2545
ored	-2546
pace	-2547
▁Dav	-2548
▁Not	-2549
▁gre	-2550
istor	-2551
▁vert	-2552
ancial	-2553
verage	-2554
▁effor	-2555
▁light	-2556
▁regul	-2557
▁sense	-2558
▁uniqu	-2559
ilitary	-2560
ministr	-2561
▁Theory	-2562
▁column	-2563
▁define	-2564
▁length	-2565
▁mobile	-2566
▁points	-2567
▁Systems	-2568
▁cluster	-2569
▁install	-2570
▁threads	-2571
ultaneous	-2572
▁location	-2573
▁therefore	-2574
▁cybersecurity	-2575
IT	-2576
_{\	-2577
day	-2578
abil	-2579
omic	-2580
▁...	-2581
▁div	-2582
▁unc	-2583
empor	-2584
ieved	-2585
ufact	-2586
▁1980	-2587
▁agent	-2588
▁enable	-2589
▁stream	-2590
▁aspects	-2591
▁variety	-2592
▁interpreter	-2593
su	-2594
ade	-2595
sim	-2596
cript	-2597
inger	-2598
known	-2599
point	-2600
▁look	-2601
▁node	-2602
▁seen	-2603
▁slow	-2604
nomial	-2605
▁surve	-2606
mediate	-2607
▁sample	-2608
▁categor	-2609
▁protect	-2610
▁purpose	-2611
▁configur	-2612
▁intended	-2613
▁automated	-2614
▁connection	-2615
AR	-2616
▁∈	-2617
▁Or	-2618
amed	-2619
ayer	-2620
hing	-2621
board	-2622
▁idea	-2623
▁lack	-2624
▁rest	-2625
kernel	-2626
▁Cloud	-2627
▁fully	-2628
▁regular	-2629
▁vectors	-2630
▁External	-2631
▁interfaces	-2632
▁International	-2633
▁implementations	-2634
);	-2635
row	-2636
▁OS	-2637
onal	-2638
rain	-2639
▁Jav	-2640
▁beg	-2641
▁tre	-2642
gment	-2643
▁1990	-2644
▁More	-2645
▁pres	-2646
iction	-2647
▁becom	-2648
▁trust	-2649
▁events	-2650
oriented	-2651
▁circuit	-2652
▁symbols	-2653
▁Algorith	-2654
▁European	-2655
▁capacity	-2656
▁contrast	-2657
▁classical	-2658
▁generator	-2659
▁arithmetic	-2660
▁challenges	-2661
EC	-2662
af	-2663
key	-2664
une	-2665
ront	-2666
▁Rel	-2667
▁did	-2668
▁hal	-2669
ember	-2670
▁chip	-2671
▁announ	-2672
▁actions	-2673
▁attacker	-2674
▁automata	-2675
▁effective	-2676
▁electronic	-2677
▁generation	-2678
▁polynomial	-2679
▁combinatorics	-2680
ty	-2681
10.	-2682
arm	-2683
▁18	-2684
▁Le	-2685
ehic	-2686
igma	-2687
ones	-2688
otyp	-2689
▁fam	-2690
▁sug	-2691
ising	-2692
posed	-2693
scale	-2694
▁2020	-2695
▁avoid	-2696
▁equip	-2697
▁parad	-2698
▁likely	-2699
▁suggest	-2700
▁Language	-2701
▁Standard	-2702
▁explicit	-2703
▁modeling	-2704
▁fundamental	-2705
omm	-2706
oot	-2707
ises	-2708
name	-2709
▁Big	-2710
▁der	-2711
annon	-2712
antum	-2713
▁keys	-2714
ensive	-2715
▁clock	-2716
▁quick	-2717
▁takes	-2718
▁counter	-2719
▁members	-2720
▁protein	-2721
▁describe	-2722
▁manufact	-2723
▁material	-2724
▁simultaneous	-2725
.)	-2726
▁193	-2727
▁mis	-2728
▁book	-2729
▁edge	-2730
▁post	-2731
ishing	-2732
▁cause	-2733
▁third	-2734
▁vehic	-2735
onomous	-2736
▁errors	-2737
▁nature	-2738
▁render	-2739
istribut	-2740
▁allowed	-2741
▁channel	-2742
▁discuss	-2743
▁element	-2744
▁integer	-2745
▁although	-2746
▁relevant	-2747
▁component	-2748
▁constraints	-2749
▁specialized	-2750
11	-2751
li	-2752
ne	-2753
ted	-2754
pret	-2755
▁Art	-2756
▁ded	-2757
inter	-2758
▁Stat	-2759
▁pair	-2760
▁said	-2761
▁wide	-2762
▁fixed	-2763
▁names	-2764
▁always	-2765
▁impact	-2766
▁safety	-2767
▁building	-2768
▁relation	-2769
▁announced	-2770
▁decisions	-2771
▁detection	-2772
▁scheduler	-2773
▁deployment	-2774
▁parameters	-2775
▁Applications	-2776
")	-2777
-2	-2778
-\	-2779
8.	-2780
PS	-2781
SD	-2782
off	-2783
▁Ed	-2784
▁la	-2785
also	-2786
ipel	-2787
ober	-2788
pass	-2789
▁And	-2790
▁Per	-2791
▁neg	-2792
▁red	-2793
▁base	-2794
▁cert	-2795
▁fair	-2796
▁fore	-2797
▁four	-2798
▁hack	-2799
ifying	-2800
▁Autom	-2801
▁indic	-2802
▁inputs	-2803
▁simply	-2804
▁strong	-2805
▁Process	-2806
▁achieve	-2807
▁execute	-2808
▁manipul	-2809
▁million	-2810
▁advanced	-2811
▁compared	-2812
▁consists	-2813
▁augmented	-2814
▁financial	-2815
▁interrupt	-2816
▁semantics	-2817
▁equivalent	-2818
▁cryptographic	-2819
▁reinforcement	-2820
9.	-2821
AS	-2822
sf	-2823
pat	-2824
ton	-2825
ume	-2826
▁2.	-2827
▁Bl	-2828
▁que	-2829
▁sym	-2830
wards	-2831
▁Spec	-2832
▁cred	-2833
▁turn	-2834
▁vary	-2835
▁wire	-2836
ournal	-2837
▁check	-2838
▁cover	-2839
▁enter	-2840
▁thems	-2841
▁explan	-2842
computer	-2843
▁Shannon	-2844
▁initial	-2845
▁involved	-2846
▁protocols	-2847
\\	-2848
lex	-2849
rac	-2850
see	-2851
ried	-2852
ring	-2853
wise	-2854
▁Log	-2855
▁you	-2856
elves	-2857
▁Thus	-2858
▁issue	-2859
▁choice	-2860
▁intern	-2861
▁English	-2862
▁signals	-2863
▁started	-2864
▁infinite	-2865
▁purposes	-2866
▁Institute	-2867
▁equations	-2868
▁providing	-2869
▁biological	-2870
▁experience	-2871
▁themselves	-2872
▁combination	-2873
▁theoretical	-2874
sh	-2875
▁θ	-2876
use	-2877
ceed	-2878
ilos	-2879
lear	-2880
lers	-2881
ucle	-2882
▁Ind	-2883
▁_{\	-2884
theta	-2885
▁2000	-2886
▁insp	-2887
▁late	-2888
▁mass	-2889
▁play	-2890
▁util	-2891
▁World	-2892
▁compet	-2893
▁average	-2894
▁history	-2895
▁creating	-2896
▁incorpor	-2897
▁projects	-2898
▁tracking	-2899
▁transport	-2900
▁difference	-2901
▁hypothesis	-2902
▁description	-2903
▁Ω	-2904
aim	-2905
ody	-2906
top	-2907
▁IP	-2908
eler	-2909
iers	-2910
ooks	-2911
▁lif	-2912
▁cond	-2913
ecause	-2914
metric	-2915
▁occur	-2916
▁subst	-2917
▁whole	-2918
▁Modern	-2919
▁appear	-2920
▁assist	-2921
▁branch	-2922
▁groups	-2923
ifically	-2924
▁Science	-2925
▁defines	-2926
▁operate	-2927
▁optimal	-2928
▁appropri	-2929
▁embedded	-2930
▁military	-2931
ditionally	-2932
▁alternative	-2933
▁communications	-2934
LP	-2935
bitr	-2936
eric	-2937
erse	-2938
ites	-2939
mega	-2940
igned	-2941
▁home	-2942
▁adapt	-2943
▁artic	-2944
▁coord	-2945
▁place	-2946
connect	-2947
▁actual	-2948
▁degree	-2949
▁enumer	-2950
▁global	-2951
▁details	-2952
▁smaller	-2953
▁According	-2954
▁inference	-2955
▁practices	-2956
▁monitoring	-2957
▁production	-2958
▁increasingly	-2959
▁automatically	-2960
▁vulnerabilities	-2961
IM	-2962
▁NP	-2963
book	-2964
ides	-2965
ying	-2966
▁Rob	-2967
▁deb	-2968
Omega	-2969
world	-2970
▁APIs	-2971
▁Prot	-2972
▁cour	-2973
▁dele	-2974
▁hold	-2975
▁phot	-2976
▁zero	-2977
mathbf	-2978
source	-2979
▁total	-2980
▁academ	-2981
▁answer	-2982
▁longer	-2983
▁studied	-2984
abilistic	-2985
▁collabor	-2986
▁principle	-2987
▁sequences	-2988
▁discipline	-2989
▁connections	-2990
NF	-2991
▁-	-2992
▁⟩	-2993
The	-2994
uth	-2995
▁Ag	-2996
▁wa	-2997
▁}}	-2998
:10.	-2999
avig	-3000
▁Inc	-3001
▁doi	-3002
▁rad	-3003
ready	-3004
▁Publ	-3005
iation	-3006
itting	-3007
rangle	-3008
▁Cyber	-3009
▁Multi	-3010
▁influ	-3011
mathcal	-3012
▁almost	-3013
▁easier	-3014
▁syntax	-3015
▁Introdu	-3016
▁factors	-3017
▁queries	-3018
▁geometry	-3019
▁numerical	-3020
▁principles	-3021
12	-3022
6-	-3023
/1.	-3024
Ops	-3025
ank	-3026
oll	-3027
pag	-3028
comm	-3029
face	-3030
roup	-3031
▁Tra	-3032
▁acqu	-3033
▁deal	-3034
▁draw	-3035
▁Simil	-3036
▁brows	-3037
▁email	-3038
▁great	-3039
inistic	-3040
urrency	-3041
▁arbitr	-3042
▁compar	-3043
ttention	-3044
▁encoder	-3045
▁platforms	-3046
▁conditions	-3047
▁controller	-3048
▁functional	-3049
4-	-3050
=\	-3051
box	-3052
ole	-3053
▁1,	-3054
aves	-3055
▁eng	-3056
grees	-3057
ister	-3058
▁Lear	-3059
▁give	-3060
▁lock	-3061
encies	-3062
▁cards	-3063
▁chain	-3064
▁pipel	-3065
ography	-3066
▁Design	-3067
▁compos	-3068
▁capable	-3069
▁degrees	-3070
▁designs	-3071
▁outputs	-3072
▁writing	-3073
▁computable	-3074
EEE	-3075
big	-3076
dec	-3077
sum	-3078
▁IT	-3079
▁lo	-3080
come	-3081
egin	-3082
erver	-3083
ption	-3084
which	-3085
▁LLMs	-3086
▁List	-3087
▁exch	-3088
▁item	-3089
▁mode	-3090
▁below	-3091
▁break	-3092
▁lines	-3093
▁skill	-3094
▁stack	-3095
▁steps	-3096
olation	-3097
▁Algebra	-3098
▁Because	-3099
▁managed	-3100
▁creation	-3101
▁revision	-3102
▁concerned	-3103
▁describes	-3104
▁resulting	-3105
▁technical	-3106
▁generative	-3107
▁sufficient	-3108
.;	-3109
/3	-3110
_{1	-3111
tes	-3112
▁Mc	-3113
ford	-3114
yond	-3115
▁Par	-3116
fined	-3117
ories	-3118
▁1960	-3119
▁come	-3120
▁econ	-3121
▁meet	-3122
▁neur	-3123
lished	-3124
omorph	-3125
▁explo	-3126
▁label	-3127
▁scale	-3128
▁today	-3129
▁whose	-3130
▁format	-3131
▁unique	-3132
▁Service	-3133
▁kernels	-3134
▁consumer	-3135
▁investig	-3136
▁strategy	-3137
istributed	-3138
▁Computing	-3139
▁compilers	-3140
▁hierarchy	-3141
▁specified	-3142
▁Artificial	-3143
▁Technology	-3144
▁capability	-3145
▁procedures	-3146
▁interpreters	-3147
▁interpreting	-3148
40	-3149
CL	-3150
IS	-3151
cent	-3152
▁Java	-3153
▁educ	-3154
▁last	-3155
▁upon	-3156
▁vend	-3157
idence	-3158
iences	-3159
strial	-3160
textsf	-3161
▁inher	-3162
▁remov	-3163
▁shown	-3164
▁usage	-3165
ilosoph	-3166
▁Americ	-3167
▁coding	-3168
▁manage	-3169
▁string	-3170
▁already	-3171
▁involve	-3172
▁paradig	-3173
▁quickly	-3174
▁internet	-3175
▁Interpret	-3176
▁instances	-3177
▁regression	-3178
▁demonstrated	-3179
▁configuration	-3180
MM	-3181
)=\	-3182
▁("	-3183
aker	-3184
ften	-3185
orth	-3186
symb	-3187
▁Dig	-3188
▁GPT	-3189
emory	-3190
order	-3191
uracy	-3192
▁Also	-3193
urpose	-3194
▁Human	-3195
▁claim	-3196
▁track	-3197
▁works	-3198
▁affect	-3199
▁analog	-3200
▁easily	-3201
▁facilit	-3202
▁failure	-3203
▁follows	-3204
▁leading	-3205
▁retriev	-3206
▁Learning	-3207
▁extended	-3208
▁powerful	-3209
▁administr	-3210
▁autonomous	-3211
▁expression	-3212
▁networking	-3213
▁represents	-3214
▁efficiently	-3215
▁individuals	-3216
▁functionality	-3217
▁$	-3218
▁∼	-3219
ged	-3220
ras	-3221
ude	-3222
abet	-3223
frac	-3224
ouse	-3225
reen	-3226
▁Ent	-3227
▁Pre	-3228
▁far	-3229
▁lic	-3230
▁mid	-3231
▁mut	-3232
arent	-3233
erson	-3234
olith	-3235
oring	-3236
state	-3237
▁anim	-3238
▁gram	-3239
▁left	-3240
▁cross	-3241
▁edges	-3242
▁share	-3243
▁assess	-3244
▁extrem	-3245
▁solved	-3246
▁Contain	-3247
▁solving	-3248
▁feedback	-3249
▁handling	-3250
▁automation	-3251
▁developing	-3252
▁appropriate	-3253
▁reliability	-3254
▁Introduction	-3255
48	-3256
ID	-3257
GAN	-3258
eer	-3259
orn	-3260
▁We	-3261
▁Dif	-3262
▁Spr	-3263
▁air	-3264
▁ill	-3265
astic	-3266
gener	-3267
▁Oper	-3268
▁alph	-3269
author	-3270
ending	-3271
▁Crypt	-3272
▁repos	-3273
▁sound	-3274
▁tests	-3275
purpose	-3276
▁enough	-3277
▁recent	-3278
▁remote	-3279
▁combined	-3280
▁produced	-3281
▁prototyp	-3282
▁advantage	-3283
▁expressed	-3284
▁Engineering	-3285
▁blockchains	-3286
▁communicate	-3287
▁parallelism	-3288
▁differential	-3289
CP	-3290
IC	-3291
ops	-3292
pid	-3293
▁0.	-3294
▁Sm	-3295
▁Sy	-3296
eder	-3297
more	-3298
oted	-3299
term	-3300
vert	-3301
▁let	-3302
▁mer	-3303
▁squ	-3304
idden	-3305
itory	-3306
omput	-3307
▁Priv	-3308
▁What	-3309
▁capt	-3310
▁grad	-3311
▁laun	-3312
▁After	-3313
▁David	-3314
▁kinds	-3315
▁Markov	-3316
▁highly	-3317
▁proper	-3318
atorname	-3319
▁comprom	-3320
▁compute	-3321
▁enables	-3322
▁finding	-3323
▁learned	-3324
▁library	-3325
▁mapping	-3326
▁maximum	-3327
▁circuits	-3328
▁robotics	-3329
▁questions	-3330
▁identified	-3331
operatorname	-3332
▁effectively	-3333
,}	-3334
30	-3335
MS	-3336
▁u	-3337
ool	-3338
ope	-3339
▁CO	-3340
▁Ge	-3341
▁vi	-3342
iter	-3343
raft	-3344
ster	-3345
used	-3346
▁Fin	-3347
▁Mor	-3348
▁Spe	-3349
▁adj	-3350
adata	-3351
iring	-3352
plete	-3353
▁Arch	-3354
▁Cent	-3355
▁IEEE	-3356
▁June	-3357
▁sort	-3358
▁year	-3359
aching	-3360
▁accur	-3361
▁divid	-3362
▁final	-3363
▁goals	-3364
▁named	-3365
▁navig	-3366
▁rapid	-3367
olithic	-3368
▁Associ	-3369
▁effort	-3370
▁handle	-3371
▁inside	-3372
▁closely	-3373
▁constant	-3374
▁contract	-3375
▁distinct	-3376
▁password	-3377
▁priority	-3378
▁contribut	-3379
▁equipment	-3380
▁attributes	-3381
▁classified	-3382
▁convention	-3383
▁established	-3384
▁Intelligence	-3385
▁discriminator	-3386
▁relationships	-3387
▁/	-3388
eff	-3389
ele	-3390
nov	-3391
dots	-3392
ided	-3393
▁Mon	-3394
▁ord	-3395
begin	-3396
ented	-3397
light	-3398
rical	-3399
▁Know	-3400
▁care	-3401
ersion	-3402
mathbb	-3403
▁close	-3404
▁diagn	-3405
▁domin	-3406
▁equal	-3407
▁taken	-3408
▁assemb	-3409
▁caches	-3410
▁motion	-3411
▁recomm	-3412
elligent	-3413
services	-3414
▁effects	-3415
▁enhance	-3416
▁overall	-3417
▁threats	-3418
▁Analysis	-3419
▁improved	-3420
▁policies	-3421
▁automatic	-3422
▁countries	-3423
▁containing	-3424
▁microkernel	-3425
▁operational	-3426
▁responsible	-3427
▁transformer	-3428
▁corresponding	-3429
80	-3430
ES	-3431
OL	-3432
au	-3433
^{2	-3434
aby	-3435
}}(	-3436
isor	-3437
mann	-3438
part	-3439
spec	-3440
▁Har	-3441
▁pol	-3442
▁cogn	-3443
▁move	-3444
▁once	-3445
▁runs	-3446
icious	-3447
ociety	-3448
▁Logic	-3449
▁Using	-3450
▁gives	-3451
▁ideas	-3452
agement	-3453
osystem	-3454
▁prompt	-3455
▁recurs	-3456
▁acceler	-3457
▁analyze	-3458
▁becomes	-3459
▁grammar	-3460
▁outside	-3461
▁website	-3462
▁unauthor	-3463
▁vertices	-3464
▁addresses	-3465
▁universal	-3466
▁frequently	-3467
▁mechanisms	-3468
▁programmer	-3469
▁scientific	-3470
▁programmers	-3471
▁interactions	-3472
▁intermediate	-3473
-3	-3474
16	-3475
▁∑	-3476
NNs	-3477
cks	-3478
ees	-3479
egr	-3480
ild	-3481
▁Em	-3482
ffer	-3483
ktop	-3484
▁Act	-3485
▁May	-3486
ached	-3487
thing	-3488
▁hash	-3489
▁pars	-3490
symbol	-3491
uclear	-3492
▁begin	-3493
▁bioin	-3494
▁front	-3495
▁noise	-3496
▁plane	-3497
artment	-3498
▁demand	-3499
ructured	-3500
▁Digital	-3501
▁billion	-3502
▁depends	-3503
▁reduced	-3504
▁accuracy	-3505
▁position	-3506
▁depending	-3507
▁rendering	-3508
▁Algorithms	-3509
▁allocation	-3510
▁eventually	-3511
▁Programming	-3512
▁scalability	-3513
▁synchronization	-3514
))	-3515
5-	-3516
DF	-3517
DP	-3518
-19	-3519
esp	-3520
alse	-3521
land	-3522
ured	-3523
▁100	-3524
▁Can	-3525
▁box	-3526
▁pod	-3527
▁Unix	-3528
▁Work	-3529
▁aims	-3530
▁dest	-3531
▁Elect	-3532
▁calls	-3533
▁costs	-3534
▁legal	-3535
▁never	-3536
▁print	-3537
▁reduc	-3538
▁Direct	-3539
▁active	-3540
▁corpor	-3541
▁dimens	-3542
▁inform	-3543
▁mainly	-3544
▁showed	-3545
▁termin	-3546
▁Quantum	-3547
▁consequ	-3548
▁forward	-3549
▁privile	-3550
▁reflect	-3551
▁thought	-3552
▁typical	-3553
▁controls	-3554
▁distingu	-3555
▁overhead	-3556
▁relative	-3557
▁workload	-3558
▁currently	-3559
▁establish	-3560
▁reference	-3561
▁completely	-3562
▁relatively	-3563
AD	-3564
dr	-3565
ink	-3566
▁Ob	-3567
cont	-3568
fram	-3569
pite	-3570
plex	-3571
rend	-3572
▁bal	-3573
▁get	-3574
phone	-3575
▁Test	-3576
▁elim	-3577
▁Intel	-3578
▁deliv	-3579
irection	-3580
▁patient	-3581
▁physics	-3582
▁section	-3583
▁obtained	-3584
▁property	-3585
▁wireless	-3586
▁arbitrary	-3587
▁sensitive	-3588
▁uncertain	-3589
▁prediction	-3590
▁simulation	-3591
▁unauthorized	-3592
▁specification	-3593
▁bioinformatics	-3594
▁simultaneously	-3595
IP	-3596
NI	-3597
3).	-3598
ask	-3599
equ	-3600
ift	-3601
iph	-3602
mid	-3603
▁15	-3604
▁DN	-3605
bold	-3606
ench	-3607
iest	-3608
irus	-3609
left	-3610
▁Col	-3611
▁MIT	-3612
▁Pet	-3613
alled	-3614
ector	-3615
iddle	-3616
pling	-3617
▁(197	-3618
▁GPUs	-3619
▁That	-3620
▁bias	-3621
▁fine	-3622
▁impl	-3623
▁miss	-3624
▁rare	-3625
iphers	-3626
▁decom	-3627
▁queue	-3628
defined	-3629
▁DevOps	-3630
▁beyond	-3631
▁subset	-3632
▁greater	-3633
▁subsequ	-3634
▁subsets	-3635
▁academic	-3636
▁activity	-3637
▁changing	-3638
▁enabling	-3639
▁identity	-3640
▁incident	-3641
▁reported	-3642
boldsymbol	-3643
▁Transform	-3644
▁Conference	-3645
▁characters	-3646
▁monolithic	-3647
▁performing	-3648
▁conditional	-3649
▁potentially	-3650
▁availability	-3651
▁distributions	-3652
MD	-3653
ky	-3654
we	-3655
che	-3656
eas	-3657
hib	-3658
ina	-3659
rec	-3660
set	-3661
▁AC	-3662
▁cr	-3663
care	-3664
ithm	-3665
only	-3666
thon	-3667
▁Sch	-3668
▁ant	-3669
▁bug	-3670
▁cur	-3671
field	-3672
▁Comb	-3673
▁York	-3674
▁decl	-3675
▁maps	-3676
eloper	-3677
everal	-3678
▁brain	-3679
▁incom	-3680
▁innov	-3681
▁phase	-3682
▁ports	-3683
▁voice	-3684
espread	-3685
▁axioms	-3686
▁contin	-3687
▁exists	-3688
▁transp	-3689
junction	-3690
ographic	-3691
▁General	-3692
▁article	-3693
▁deliver	-3694
▁desired	-3695
▁domains	-3696
▁Springer	-3697
▁actually	-3698
▁calculus	-3699
▁followed	-3700
▁Knowledge	-3701
▁collected	-3702
▁customers	-3703
▁developer	-3704
▁engineers	-3705
▁libraries	-3706
▁mechanical	-3707
▁widespread	-3708
▁controllers	-3709
▁necessarily	-3710
▁Mathematical	-3711
▁construction	-3712
▁professional	-3713
DB	-3714
oy	-3715
aaS	-3716
aly	-3717
iod	-3718
mal	-3719
och	-3720
wid	-3721
▁12	-3722
arge	-3723
elta	-3724
itig	-3725
writ	-3726
▁Cam	-3727
▁Pat	-3728
▁bat	-3729
▁fir	-3730
▁fra	-3731
▁und	-3732
enced	-3733
value	-3734
width	-3735
▁Germ	-3736
▁intr	-3737
▁suit	-3738
▁tend	-3739
▁trig	-3740
▁2016,	-3741
▁Apple	-3742
▁Image	-3743
▁NoSQL	-3744
▁treat	-3745
ynchron	-3746
▁moving	-3747
▁notion	-3748
▁occurs	-3749
▁proved	-3750
▁skills	-3751
▁stores	-3752
formance	-3753
▁amounts	-3754
▁ciphers	-3755
▁decoder	-3756
▁extract	-3757
▁largest	-3758
▁sources	-3759
▁accessed	-3760
▁attempts	-3761
▁customer	-3762
▁encoding	-3763
▁planning	-3764
▁reducing	-3765
processing	-3766
supervised	-3767
▁increases	-3768
▁primarily	-3769
▁providers	-3770
▁Distributed	-3771
▁limitations	-3772
▁specifically	-3773
▁representations	-3774
44	-3775
FC	-3776
▁∨	-3777
odd	-3778
org	-3779
rug	-3780
ung	-3781
▁2,	-3782
▁IC	-3783
▁Is	-3784
▁aid	-3785
▁eth	-3786
▁imm	-3787
esian	-3788
iform	-3789
▁iter	-3790
▁onto	-3791
▁rail	-3792
bridge	-3793
enance	-3794
▁Labor	-3795
▁fault	-3796
▁force	-3797
▁trees	-3798
▁status	-3799
▁Several	-3800
▁exactly	-3801
▁focuses	-3802
▁malware	-3803
▁respond	-3804
▁achieved	-3805
▁benefits	-3806
▁breaches	-3807
▁directed	-3808
▁replaced	-3809
▁analyzing	-3810
▁directory	-3811
▁partition	-3812
▁procedure	-3813
▁categories	-3814
▁definitions	-3815
▁probabilistic	-3816
▁significantly	-3817
7-	-3818
OT	-3819
▁Do	-3820
▁tw	-3821
free	-3822
▁Sec	-3823
▁Sub	-3824
▁arr	-3825
▁dam	-3826
▁hap	-3827
etary	-3828
ooper	-3829
prise	-3830
▁Cons	-3831
▁emot	-3832
▁rely	-3833
▁Given	-3834
▁Group	-3835
▁mitig	-3836
▁risks	-3837
▁views	-3838
service	-3839
▁camera	-3840
▁entity	-3841
▁hidden	-3842
▁hybrid	-3843
▁period	-3844
▁secret	-3845
andwidth	-3846
▁Develop	-3847
▁adopted	-3848
▁divided	-3849
▁earlier	-3850
▁latency	-3851
▁release	-3852
▁unknown	-3853
▁updates	-3854
▁Communic	-3855
▁alphabet	-3856
▁defining	-3857
▁delivery	-3858
▁perspect	-3859
▁cognitive	-3860
▁dedicated	-3861
▁controlled	-3862
▁repository	-3863
▁resolution	-3864
▁structured	-3865
▁implementing	-3866
▁respectively	-3867
▁computability	-3868
▁independently	-3869
1)	-3870
▁Σ	-3871
({\	-3872
CID	-3873
duc	-3874
son	-3875
},\	-3876
ancy	-3877
hors	-3878
rics	-3879
▁Dec	-3880
▁Two	-3881
▁flo	-3882
▁mac	-3883
▁pus	-3884
▁say	-3885
ading	-3886
arant	-3887
eterm	-3888
olved	-3889
▁Hard	-3890
▁Mich	-3891
▁Vari	-3892
▁came	-3893
▁ones	-3894
▁rang	-3895
▁scen	-3896
arithm	-3897
called	-3898
▁Ether	-3899
▁audio	-3900
▁cargo	-3901
▁truth	-3902
▁virus	-3903
related	-3904
▁commun	-3905
▁labels	-3906
▁tempor	-3907
▁biology	-3908
▁conduct	-3909
▁dataset	-3910
▁experts	-3911
▁formula	-3912
▁partial	-3913
▁segment	-3914
▁whereas	-3915
▁Archived	-3916
▁modified	-3917
▁paradigm	-3918
▁students	-3919
▁Architect	-3920
▁Similarly	-3921
▁frequency	-3922
▁presented	-3923
▁activities	-3924
▁determined	-3925
▁evaluation	-3926
▁population	-3927
▁situations	-3928
▁Mathematics	-3929
▁international	-3930
▁transformation	-3931
32	-3932
47	-3933
IN	-3934
St	-3935
▁∞	-3936
▁∧	-3937
8).	-3938
^{\	-3939
pir	-3940
pty	-3941
vid	-3942
▁PC	-3943
▁Py	-3944
▁Sw	-3945
abul	-3946
alls	-3947
cast	-3948
enge	-3949
flow	-3950
mark	-3951
osen	-3952
wide	-3953
▁Oct	-3954
▁Reg	-3955
▁Rep	-3956
▁yet	-3957
▁Char	-3958
▁five	-3959
▁flex	-3960
▁gate	-3961
▁repe	-3962
▁rise	-3963
encing	-3964
ynamic	-3965
▁Class	-3966
▁carry	-3967
▁cycle	-3968
▁motiv	-3969
▁offic	-3970
illance	-3971
program	-3972
▁Common	-3973
▁credit	-3974
▁possib	-3975
▁review	-3976
▁spread	-3977
▁clients	-3978
▁modules	-3979
▁offered	-3980
▁inspired	-3981
▁metadata	-3982
▁performs	-3983
▁substant	-3984
▁supports	-3985
▁Therefore	-3986
▁designing	-3987
▁documents	-3988
▁symmetric	-3989
▁recognized	-3990
▁Association	-3991
▁Computational	-3992
▁identification	-3993
52	-3994
70	-3995
_{2	-3996
eal	-3997
enn	-3998
fty	-3999
gra	-4000
ief	-4001
pha	-4002
sub	-4003
▁25	-4004
▁ft	-4005
▁tu	-4006
etic	-4007
tics	-4008
▁Rev	-4009
▁Way	-4010
infty	-4011
rehen	-4012
where	-4013
▁File	-4014
▁side	-4015
ancing	-4016
ifiers	-4017
▁Canad	-4018
▁Model	-4019
▁empty	-4020
▁lingu	-4021
▁liter	-4022
▁plans	-4023
▁reach	-4024
ryption	-4025
▁During	-4026
▁Europe	-4027
▁Speech	-4028
▁argued	-4029
▁commit	-4030
▁consid	-4031
▁except	-4032
▁growth	-4033
▁instit	-4034
▁update	-4035
▁volume	-4036
pagation	-4037
pervisor	-4038
position	-4039
▁Project	-4040
▁guarant	-4041
▁neurons	-4042
▁scenari	-4043
▁register	-4044
▁semantic	-4045
▁Cambridge	-4046
▁expensive	-4047
▁parameter	-4048
▁complement	-4049
▁concurrent	-4050
▁consisting	-4051
▁previously	-4052
▁Furthermore	-4053
▁interactive	-4054
▁maintenance	-4055
▁experimental	-4056
▁interconnect	-4057
▁introduction	-4058
▁successfully	-4059
▁transmission	-4060
(\	-4061
▁′	-4062
bre	-4063
oof	-4064
})}	-4065
▁Be	-4066
DBMS	-4067
bert	-4068
disc	-4069
ooth	-4070
view	-4071
▁But	-4072
▁Dep	-4073
▁Enc	-4074
▁Mac	-4075
▁bar	-4076
▁unl	-4077
comes	-4078
iable	-4079
rices	-4080
▁Codd	-4081
▁Fran	-4082
▁Over	-4083
▁near	-4084
▁rows	-4085
▁scan	-4086
active	-4087
▁Early	-4088
▁apply	-4089
▁drive	-4090
▁recon	-4091
aligned	-4092
forward	-4093
iveness	-4094
▁Integr	-4095
▁assert	-4096
▁drives	-4097
▁mostly	-4098
▁offers	-4099
▁taking	-4100
inations	-4101
specific	-4102
▁changed	-4103
▁coordin	-4104
▁parties	-4105
▁remains	-4106
▁adoption	-4107
▁exchange	-4108
▁launched	-4109
▁managing	-4110
▁challenge	-4111
▁locations	-4112
▁objective	-4113
▁accessible	-4114
▁statements	-4115
▁improvements	-4116
nd	-4117
zz	-4118
neg	-4119
ref	-4120
▁II	-4121
/1.1	-4122
lict	-4123
oded	-4124
▁Bay	-4125
▁Red	-4126
▁Sem	-4127
▁Sol	-4128
▁war	-4129
ifier	-4130
imate	-4131
▁Stud	-4132
▁body	-4133
▁page	-4134
▁reve	-4135
▁sett	-4136
▁colle	-4137
▁expos	-4138
ategory	-4139
▁Public	-4140
▁sensor	-4141
▁October	-4142
▁advance	-4143
▁authors	-4144
▁command	-4145
▁replace	-4146
▁satisfy	-4147
▁towards	-4148
▁American	-4149
▁particip	-4150
▁topology	-4151
▁operators	-4152
▁Processing	-4153
▁frameworks	-4154
▁industrial	-4155
▁supporting	-4156
▁identifying	-4157
▁computations	-4158
▁surveillance	-4159
▁microservices	-4160
▁characteristics	-4161
,\	-4162
17	-4163
AL	-4164
AP	-4165
EL	-4166
FR	-4167
OR	-4168
ah	-4169
fe	-4170
▁¬	-4171
▁‖	-4172
4).	-4173
igr	-4174
mod	-4175
oms	-4176
zon	-4177
▁Ac	-4178
▁Ke	-4179
▁ln	-4180
▁sl	-4181
izer	-4182
rant	-4183
▁NLP	-4184
arrow	-4185
gress	-4186
iated	-4187
itors	-4188
ittle	-4189
▁(198	-4190
▁Code	-4191
▁Part	-4192
▁easy	-4193
▁hund	-4194
▁jobs	-4195
▁pure	-4196
▁send	-4197
▁weak	-4198
Comput	-4199
lation	-4200
luding	-4201
matrix	-4202
ocabul	-4203
rehens	-4204
urance	-4205
▁Robot	-4206
▁bench	-4207
▁false	-4208
▁plain	-4209
▁agents	-4210
▁compat	-4211
▁expand	-4212
▁expect	-4213
▁insert	-4214
▁licens	-4215
▁screen	-4216
▁static	-4217
▁benefit	-4218
▁columns	-4219
▁combine	-4220
▁growing	-4221
▁hundred	-4222
▁nuclear	-4223
▁recover	-4224
▁regions	-4225
▁sharing	-4226
Attention	-4227
ocabulary	-4228
processor	-4229
▁datasets	-4230
▁earliest	-4231
▁integers	-4232
▁outcomes	-4233
▁theorems	-4234
ynchronous	-4235
▁analytics	-4236
▁consumers	-4237
▁discovery	-4238
▁education	-4239
▁logarithm	-4240
▁malicious	-4241
▁Management	-4242
▁sequential	-4243
▁transition	-4244
▁vulnerable	-4245
▁experiments	-4246
▁maintaining	-4247
▁combinatorial	-4248
▁manufacturing	-4249
45	-4250
90	-4251
CC	-4252
ON	-4253
do	-4254
ira	-4255
max	-4256
ony	-4257
ott	-4258
▁CI	-4259
▁Su	-4260
▁br	-4261
icon	-4262
iece	-4263
olec	-4264
onym	-4265
rote	-4266
with	-4267
▁Ama	-4268
▁Vol	-4269
▁nor	-4270
▁pix	-4271
▁sus	-4272
duate	-4273
▁cult	-4274
▁life	-4275
▁link	-4276
ederal	-4277
ounted	-4278
▁Found	-4279
▁phone	-4280
▁rates	-4281
▁scene	-4282
▁style	-4283
▁thous	-4284
▁trend	-4285
through	-4286
▁Amazon	-4287
▁manner	-4288
▁medium	-4289
prietary	-4290
▁Journal	-4291
▁cameras	-4292
▁carried	-4293
▁centers	-4294
▁desktop	-4295
▁Hardware	-4296
▁assembly	-4297
▁commands	-4298
▁conflict	-4299
▁gradient	-4300
▁invented	-4301
▁observed	-4302
▁vehicles	-4303
▁Typically	-4304
▁bandwidth	-4305
▁integrity	-4306
▁philosoph	-4307
▁reduction	-4308
▁situation	-4309
▁enumerable	-4310
▁generating	-4311
▁Application	-4312
▁abstraction	-4313
▁disciplines	-4314
▁perspective	-4315
▁Additionally	-4316
▁verification	-4317
▁deterministic	-4318
36	-4319
SL	-4320
bl	-4321
ln	-4322
5).	-4323
STM	-4324
amb	-4325
nel	-4326
▁==	-4327
▁pp	-4328
fers	-4329
hood	-4330
pled	-4331
sych	-4332
▁Fre	-4333
▁ban	-4334
▁mag	-4335
▁sal	-4336
▁Even	-4337
▁Text	-4338
▁excl	-4339
▁join	-4340
access	-4341
driven	-4342
itives	-4343
mental	-4344
ooking	-4345
▁Media	-4346
▁alter	-4347
▁compl	-4348
▁serve	-4349
▁teams	-4350
▁wrote	-4351
plexity	-4352
▁cooper	-4353
▁elimin	-4354
▁packet	-4355
▁redund	-4356
▁scheme	-4357
▁strict	-4358
analysis	-4359
▁Privacy	-4360
▁default	-4361
▁estimate	-4362
▁matrices	-4363
▁operator	-4364
▁progress	-4365
▁sentence	-4366
▁starting	-4367
▁switches	-4368
▁Laboratory	-4369
▁consistent	-4370
▁describing	-4371
▁explicitly	-4372
▁extensions	-4373
▁healthcare	-4374
▁compression	-4375
▁differences	-4376
▁explanation	-4377
▁interpreted	-4378
▁methodology	-4379
▁calculations	-4380
In	-4381
az	-4382
▁⁠	-4383
.),	-4384
Net	-4385
eli	-4386
ili	-4387
mer	-4388
rie	-4389
tun	-4390
ups	-4391
▁Sp	-4392
coin	-4393
hold	-4394
iber	-4395
irew	-4396
▁ACM	-4397
▁Add	-4398
▁Bio	-4399
▁Cal	-4400
▁ISO	-4401
▁Inf	-4402
▁Mar	-4403
▁War	-4404
▁fav	-4405
▁flu	-4406
▁pay	-4407
▁row	-4408
gence	-4409
▁(202	-4410
▁2016	-4411
▁Both	-4412
▁Meta	-4413
▁Phys	-4414
▁Stan	-4415
abytes	-4416
atives	-4417
ferred	-4418
formed	-4419
istent	-4420
ronics	-4421
ulated	-4422
▁Later	-4423
▁deals	-4424
▁digit	-4425
▁stage	-4426
istical	-4427
ptember	-4428
▁Proble	-4429
▁Python	-4430
▁Unlike	-4431
▁buffer	-4432
▁caused	-4433
▁ground	-4434
▁supply	-4435
▁topics	-4436
complete	-4437
idential	-4438
▁cryptoc	-4439
▁derived	-4440
▁dynamics	-4441
▁numerous	-4442
▁produces	-4443
ifications	-4444
▁dependent	-4445
▁estimates	-4446
▁evolution	-4447
▁requiring	-4448
▁thousands	-4449
▁Combinator	-4450
▁conference	-4451
▁electrical	-4452
▁experiment	-4453
▁importance	-4454
▁subsequent	-4455
▁throughput	-4456
▁expressions	-4457
▁manipulation	-4458
▁authorization	-4459
▁propositional	-4460
++	-4461
50	-4462
DA	-4463
[\	-4464
pi	-4465
▁σ	-4466
1).	-4467
ael	-4468
ont	-4469
▁80	-4470
▁El	-4471
▁UK	-4472
imal	-4473
phas	-4474
▁AMD	-4475
▁Adv	-4476
▁Set	-4477
▁fit	-4478
▁put	-4479
acing	-4480
anned	-4481
going	-4482
itude	-4483
ormal	-4484
stood	-4485
vidia	-4486
▁Disc	-4487
▁Rich	-4488
▁Russ	-4489
▁Then	-4490
▁chem	-4491
▁pict	-4492
▁qual	-4493
▁root	-4494
icians	-4495
making	-4496
phones	-4497
▁Every	-4498
▁Notes	-4499
▁Under	-4500
▁align	-4501
▁aware	-4502
▁comes	-4503
▁facts	-4504
▁prove	-4505
▁roles	-4506
▁Corpor	-4507
▁Memory	-4508
▁Nvidia	-4509
▁adding	-4510
▁breach	-4511
▁econom	-4512
▁former	-4513
▁gather	-4514
▁letter	-4515
▁script	-4516
▁Control	-4517
▁headset	-4518
▁outcome	-4519
▁parsing	-4520
▁samples	-4521
▁updated	-4522
attention	-4523
including	-4524
▁accurate	-4525
▁concrete	-4526
▁division	-4527
▁minimize	-4528
▁movement	-4529
▁provider	-4530
structured	-4531
▁estimated	-4532
▁otherwise	-4533
▁addressing	-4534
▁comprehens	-4535
▁restricted	-4536
▁constructed	-4537
▁intelligent	-4538
▁predictions	-4539
▁uncertainty	-4540
▁hierarchical	-4541
▁approximation	-4542
▁documentation	-4543
18	-4544
26	-4545
42	-4546
99	-4547
DD	-4548
TC	-4549
ERT	-4550
GPT	-4551
ath	-4552
▁(3	-4553
▁ey	-4554
acle	-4555
cons	-4556
gers	-4557
greg	-4558
haps	-4559
omen	-4560
uble	-4561
▁FAT	-4562
▁Jan	-4563
▁Law	-4564
▁Nov	-4565
▁Out	-4566
▁cho	-4567
▁cru	-4568
▁fix	-4569
▁mar	-4570
▁tag	-4571
▁tit	-4572
apers	-4573
asked	-4574
isual	-4575
▁Alan	-4576
▁Back	-4577
▁away	-4578
▁dise	-4579
▁gene	-4580
▁half	-4581
▁held	-4582
▁lett	-4583
entral	-4584
ground	-4585
pected	-4586
ugging	-4587
ugment	-4588
▁First	-4589
▁Union	-4590
▁board	-4591
▁items	-4592
▁spoof	-4593
▁therm	-4594
illions	-4595
isation	-4596
▁center	-4597
▁chosen	-4598
▁critic	-4599
▁emphas	-4600
▁little	-4601
▁regist	-4602
▁reject	-4603
ophistic	-4604
▁Michael	-4605
▁drivers	-4606
▁enabled	-4607
▁opposed	-4608
▁schemes	-4609
▁targets	-4610
▁Graphics	-4611
▁believed	-4612
▁checking	-4613
▁deployed	-4614
▁electric	-4615
▁keyboard	-4616
▁measured	-4617
▁national	-4618
▁notation	-4619
▁recently	-4620
▁reliable	-4621
▁shipping	-4622
▁Container	-4623
▁September	-4624
▁beginning	-4625
▁embedding	-4626
▁organized	-4627
▁advantages	-4628
▁computably	-4629
▁profession	-4630
▁strategies	-4631
▁supervised	-4632
▁understood	-4633
▁Corporation	-4634
▁Transformer	-4635
▁consistency	-4636
▁essentially	-4637
▁Architecture	-4638
▁specifications	-4639
+\	-4640
.}	-4641
/2	-4642
MA	-4643
PC	-4644
SP	-4645
]}	-4646
▁×	-4647
▁∣	-4648
BSD	-4649
cer	-4650
rew	-4651
rob	-4652
ths	-4653
▁0-	-4654
▁AL	-4655
▁Fe	-4656
▁Gu	-4657
▁Hy	-4658
ares	-4659
cies	-4660
data	-4661
work	-4662
▁Lab	-4663
▁Med	-4664
▁Sup	-4665
▁gra	-4666
▁hom	-4667
▁old	-4668
▁rig	-4669
▁wal	-4670
▁Bell	-4671
▁Will	-4672
▁asym	-4673
▁cars	-4674
▁migr	-4675
▁safe	-4676
idable	-4677
inuous	-4678
theore	-4679
▁2024,	-4680
▁978-0	-4681
▁Often	-4682
▁accom	-4683
▁cells	-4684
▁entry	-4685
▁gates	-4686
▁helps	-4687
▁piece	-4688
control	-4689
▁Access	-4690
▁Method	-4691
▁Neuman	-4692
▁Object	-4693
▁Server	-4694
▁closed	-4695
▁defect	-4696
▁filter	-4697
▁genome	-4698
▁histor	-4699
▁linked	-4700
▁member	-4701
▁option	-4702
▁reveal	-4703
▁reward	-4704
▁rights	-4705
▁robust	-4706
ometimes	-4707
▁Society	-4708
▁Wayback	-4709
▁overlap	-4710
▁serious	-4711
▁strings	-4712
unctional	-4713
▁Platform	-4714
▁advances	-4715
▁applying	-4716
▁assigned	-4717
▁computed	-4718
▁ensuring	-4719
▁isomorph	-4720
▁attackers	-4721
▁completed	-4722
▁employees	-4723
▁improving	-4724
▁suggested	-4725
▁businesses	-4726
▁discovered	-4727
▁scientists	-4728
▁Development	-4729
▁approximate	-4730
▁conjunction	-4731
▁consumption	-4732
▁developments	-4733
▁representing	-4734
▁Cybersecurity	-4735
▁collaboration	-4736
37	-4737
IF	-4738
LS	-4739
NP	-4740
da	-4741
rd	-4742
sm	-4743
afe	-4744
iam	-4745
▁3.	-4746
▁Ju	-4747
▁NT	-4748
ails	-4749
bage	-4750
cles	-4751
ecut	-4752
oose	-4753
ters	-4754
urch	-4755
▁Ber	-4756
▁Car	-4757
▁Dis	-4758
▁Ret	-4759
▁cat	-4760
▁day	-4761
▁she	-4762
▁tim	-4763
▁ult	-4764
▁uns	-4765
▁wor	-4766
anged	-4767
antic	-4768
iding	-4769
inals	-4770
onald	-4771
print	-4772
▁2010	-4773
▁Face	-4774
▁bugs	-4775
▁ever	-4776
▁face	-4777
▁grid	-4778
▁null	-4779
▁past	-4780
▁sess	-4781
proble	-4782
▁2017,	-4783
▁2020,	-4784
▁Peter	-4785
▁Pract	-4786
▁array	-4787
▁black	-4788
▁delay	-4789
▁pages	-4790
▁trade	-4791
issions	-4792
ossible	-4793
▁978-1-	-4794
▁Protoc	-4795
▁behind	-4796
▁broken	-4797
▁compli	-4798
▁decade	-4799
▁nearly	-4800
▁replic	-4801
ognition	-4802
▁Neumann	-4803
▁engines	-4804
▁indexes	-4805
▁percent	-4806
▁setting	-4807
▁vendors	-4808
▁weights	-4809
struction	-4810
▁Bayesian	-4811
▁Ethernet	-4812
▁November	-4813
▁category	-4814
▁compiled	-4815
▁equation	-4816
▁normally	-4817
▁positive	-4818
▁suitable	-4819
▁websites	-4820
▁dimension	-4821
▁existence	-4822
▁extremely	-4823
▁involving	-4824
▁protected	-4825
▁prototype	-4826
▁recommend	-4827
▁selection	-4828
▁something	-4829
▁workloads	-4830
information	-4831
▁primitives	-4832
▁conventional	-4833
▁cryptosystem	-4834
▁multiplication	-4835
4)	-4836
46	-4837
GI	-4838
MP	-4839
RL	-4840
▁Δ	-4841
los	-4842
ril	-4843
vey	-4844
▁..	-4845
▁17	-4846
▁30	-4847
▁My	-4848
▁ep	-4849
▁jo	-4850
cycl	-4851
iler	-4852
rays	-4853
road	-4854
uary	-4855
▁Any	-4856
▁Bus	-4857
▁HCI	-4858
▁POS	-4859
▁abs	-4860
▁mus	-4861
▁neu	-4862
▁pun	-4863
Sigma	-4864
arial	-4865
aving	-4866
class	-4867
graph	-4868
rates	-4869
trans	-4870
▁Brit	-4871
▁Conc	-4872
▁High	-4873
elling	-4874
gebras	-4875
gments	-4876
olving	-4877
▁Block	-4878
▁clear	-4879
▁codes	-4880
▁decre	-4881
▁sizes	-4882
▁suppl	-4883
itative	-4884
▁achiev	-4885
▁advers	-4886
▁damage	-4887
▁divers	-4888
▁exclus	-4889
▁giving	-4890
▁inters	-4891
▁interv	-4892
▁limits	-4893
▁matter	-4894
▁square	-4895
▁stated	-4896
learning	-4897
▁Richard	-4898
▁applies	-4899
▁creates	-4900
▁emerged	-4901
▁entries	-4902
▁implies	-4903
▁optical	-4904
▁reasons	-4905
▁specify	-4906
▁vehicle	-4907
efficient	-4908
▁displays	-4909
▁simulate	-4910
▁correctly	-4911
▁encrypted	-4912
▁extension	-4913
▁passwords	-4914
▁producing	-4915
▁requested	-4916
▁statement	-4917
▁switching	-4918
▁Statistics	-4919
▁comparison	-4920
▁difficulty	-4921
▁regulatory	-4922
▁vocabulary	-4923
▁Statistical	-4924
▁convergence	-4925
▁measurements	-4926
0&	-4927
15	-4928
2)	-4929
38	-4930
ai	-4931
ij	-4932
▁—	-4933
▁∗	-4934
").	-4935
={\	-4936
hat	-4937
ior	-4938
rap	-4939
spe	-4940
ump	-4941
unk	-4942
uzz	-4943
▁16	-4944
▁Bi	-4945
/360	-4946
berg	-4947
bigu	-4948
orre	-4949
osis	-4950
▁Its	-4951
▁TCP	-4952
▁phr	-4953
iques	-4954
urred	-4955
vious	-4956
▁Crit	-4957
▁Fram	-4958
▁LSTM	-4959
▁actu	-4960
▁boot	-4961
▁crim	-4962
▁dead	-4963
▁firm	-4964
▁flat	-4965
▁merg	-4966
▁pion	-4967
cyclop	-4968
ership	-4969
itical	-4970
izable	-4971
length	-4972
weight	-4973
▁2014,	-4974
▁2023,	-4975
▁Appro	-4976
▁Organ	-4977
▁books	-4978
▁cores	-4979
▁exhib	-4980
▁match	-4981
▁mixed	-4982
▁molec	-4983
▁stoch	-4984
▁train	-4985
discipl	-4986
elihood	-4987
pirical	-4988
▁German	-4989
▁Things	-4990
▁adjust	-4991
▁gained	-4992
▁happen	-4993
▁middle	-4994
▁modify	-4995
▁Pattern	-4996
▁Retriev	-4997
▁crucial	-4998
▁greatly	-4999
▁insight	-5000
▁reverse	-5001
▁routing	-5002
▁scaling	-5003
▁speaker	-5004
▁uniform	-5005
▁waiting	-5006
▁Protocol	-5007
▁algebras	-5008
▁entirely	-5009
▁entities	-5010
▁headsets	-5011
▁negative	-5012
▁official	-5013
▁Augmented	-5014
▁Implement	-5015
▁Operating	-5016
▁allocated	-5017
▁executing	-5018
▁initially	-5019
▁materials	-5020
▁modelling	-5021
▁similarly	-5022
▁Department	-5023
▁estimation	-5024
▁manipulate	-5025
▁originally	-5026
ophisticated	-5027
▁concurrency	-5028
▁possibility	-5029
▁proprietary	-5030
▁replication	-5031
▁confidential	-5032
▁explanations	-5033
▁institutions	-5034
▁probabilities	-5035
RC	-5036
co	-5037
sp	-5038
tz	-5039
▁←	-5040
▁⟨	-5041
...	-5042
100	-5043
aph	-5044
dom	-5045
hel	-5046
opy	-5047
pth	-5048
rey	-5049
uil	-5050
}^{	-5051
▁3,	-5052
▁Ab	-5053
▁ID	-5054
▁SI	-5055
▁^{	-5056
auss	-5057
crib	-5058
gely	-5059
mach	-5060
ours	-5061
plit	-5062
that	-5063
user	-5064
▁Arm	-5065
▁DNA	-5066
▁Dan	-5067
▁Val	-5068
▁Wik	-5069
▁ont	-5070
▁sch	-5071
▁von	-5072
aster	-5073
ource	-5074
plain	-5075
sigma	-5076
ugust	-5077
▁...,	-5078
▁Carl	-5079
▁Once	-5080
▁isol	-5081
▁sold	-5082
imedia	-5083
▁2018,	-5084
▁April	-5085
▁Defin	-5086
▁James	-5087
▁Large	-5088
▁Numer	-5089
▁annot	-5090
▁medic	-5091
▁modes	-5092
▁stand	-5093
▁yield	-5094
oration	-5095
▁Church	-5096
▁Vision	-5097
▁causes	-5098
▁decide	-5099
▁flight	-5100
▁mutual	-5101
▁passed	-5102
▁rarely	-5103
▁switch	-5104
▁viewed	-5105
communic	-5106
ependent	-5107
standing	-5108
▁Despite	-5109
▁augment	-5110
▁diverse	-5111
▁focused	-5112
▁largely	-5113
▁portion	-5114
▁surface	-5115
▁syntact	-5116
▁utility	-5117
▁viruses	-5118
ictionary	-5119
▁Parallel	-5120
▁Services	-5121
▁accepted	-5122
▁analyzed	-5123
▁contents	-5124
▁evidence	-5125
▁symbolic	-5126
▁accessing	-5127
▁behaviors	-5128
▁condition	-5129
▁contained	-5130
▁integrate	-5131
▁recognize	-5132
▁recursive	-5133
▁retrieval	-5134
▁scenarios	-5135
▁Commission	-5136
▁compromise	-5137
▁facilitate	-5138
▁impossible	-5139
▁navigation	-5140
▁perception	-5141
▁stochastic	-5142
▁Interaction	-5143
▁determining	-5144
▁modification	-5145
▁visualization	-5146
14	-5147
58	-5148
▁π	-5149
199	-5150
7).	-5151
GPU	-5152
PDF	-5153
aks	-5154
map	-5155
pus	-5156
ris	-5157
typ	-5158
unc	-5159
acks	-5160
ades	-5161
fect	-5162
gres	-5163
iles	-5164
omas	-5165
rier	-5166
ught	-5167
umes	-5168
▁194	-5169
▁Att	-5170
▁Due	-5171
▁RAM	-5172
▁cou	-5173
▁fet	-5174
▁mix	-5175
ensor	-5176
incip	-5177
inery	-5178
netic	-5179
▁(196	-5180
▁Chap	-5181
▁GANs	-5182
▁apps	-5183
▁dual	-5184
▁feel	-5185
▁guid	-5186
▁live	-5187
▁phen	-5188
▁stop	-5189
ferent	-5190
inding	-5191
langle	-5192
linear	-5193
portun	-5194
subset	-5195
▁2015,	-5196
▁Rober	-5197
▁depth	-5198
▁expon	-5199
▁pairs	-5200
▁psych	-5201
▁qubit	-5202
▁rough	-5203
▁scope	-5204
▁spect	-5205
▁water	-5206
▁Agency	-5207
▁Formal	-5208
▁belief	-5209
▁coined	-5210
▁course	-5211
▁driver	-5212
▁illust	-5213
▁latter	-5214
▁loaded	-5215
▁supers	-5216
▁survey	-5217
▁tested	-5218
atically	-5219
▁Special	-5220
▁capture	-5221
▁exploit	-5222
▁foreign	-5223
▁letters	-5224
▁manages	-5225
▁minimal	-5226
▁passing	-5227
▁robotic	-5228
▁runtime	-5229
▁station	-5230
▁storing	-5231
▁browsers	-5232
▁certific	-5233
▁employed	-5234
▁hundreds	-5235
▁matching	-5236
▁recorded	-5237
▁settings	-5238
▁community	-5239
▁continued	-5240
▁decentral	-5241
▁designers	-5242
▁installed	-5243
▁realistic	-5244
▁maintained	-5245
▁throughout	-5246
▁centralized	-5247
▁challenging	-5248
▁convolution	-5249
▁distinguish	-5250
▁improvement	-5251
▁terminology	-5252
▁transformations	-5253
',	-5254
,"	-5255
0}	-5256
27	-5257
86	-5258
SR	-5259
▁;	-5260
2).	-5261
IST	-5262
TML	-5263
fig	-5264
rep	-5265
sis	-5266
▁,\	-5267
▁21	-5268
▁40	-5269
▁EU	-5270
▁gl	-5271
abel	-5272
alog	-5273
base	-5274
core	-5275
ptic	-5276
▁Bar	-5277
▁RFC	-5278
▁Ver	-5279
▁rot	-5280
calar	-5281
culus	-5282
layer	-5283
oting	-5284
times	-5285
▁2019	-5286
▁Hand	-5287
▁Sign	-5288
▁Stor	-5289
▁brid	-5290
▁dial	-5291
▁viol	-5292
irable	-5293
vision	-5294
▁China	-5295
▁frame	-5296
▁genes	-5297
▁lists	-5298
▁locks	-5299
▁macOS	-5300
▁moves	-5301
▁purch	-5302
▁radio	-5303
▁stake	-5304
▁union	-5305
▁Canada	-5306
▁Neural	-5307
▁Social	-5308
▁aggreg	-5309
▁copies	-5310
▁criter	-5311
▁declar	-5312
▁family	-5313
▁header	-5314
▁inject	-5315
▁native	-5316
▁oracle	-5317
▁papers	-5318
▁proven	-5319
▁region	-5320
▁slower	-5321
▁stages	-5322
▁Current	-5323
▁Instead	-5324
▁January	-5325
▁Various	-5326
▁drawing	-5327
▁genetic	-5328
▁instant	-5329
▁metrics	-5330
▁modular	-5331
▁ordered	-5332
▁overlay	-5333
▁proving	-5334
▁ranging	-5335
▁reduces	-5336
▁returns	-5337
▁thereby	-5338
▁trigger	-5339
architect	-5340
computers	-5341
generated	-5342
▁Automata	-5343
▁compress	-5344
▁detailed	-5345
▁formally	-5346
▁implicit	-5347
▁opportun	-5348
▁ordinary	-5349
cyclopedia	-5350
processors	-5351
▁Numerical	-5352
▁conducted	-5353
▁exception	-5354
▁predicted	-5355
▁processed	-5356
▁responses	-5357
▁satisfies	-5358
▁compliance	-5359
▁enterprise	-5360
▁literature	-5361
▁complicated	-5362
▁distinction	-5363
▁interacting	-5364
▁descriptions	-5365
▁reducibility	-5366
▁approximately	-5367
▁optimizations	-5368
39	-5369
BI	-5370
PE	-5371
acc	-5372
des	-5373
iet	-5374
lin	-5375
osp	-5376
phi	-5377
ror	-5378
▁Pa	-5379
aged	-5380
areh	-5381
aren	-5382
bits	-5383
imod	-5384
rist	-5385
sole	-5386
▁Air	-5387
▁Ext	-5388
▁Net	-5389
▁Sur	-5390
▁USB	-5391
▁bad	-5392
▁fig	-5393
▁six	-5394
▁{1}	-5395
ambda	-5396
ldots	-5397
lines	-5398
▁2014	-5399
▁Bern	-5400
▁HTML	-5401
▁Init	-5402
▁July	-5403
▁drug	-5404
▁feas	-5405
▁heur	-5406
▁peer	-5407
▁semi	-5408
ashion	-5409
atural	-5410
mitted	-5411
ompass	-5412
orrect	-5413
ptions	-5414
system	-5415
▁Gauss	-5416
▁Smart	-5417
▁grant	-5418
▁press	-5419
▁ready	-5420
▁round	-5421
▁suite	-5422
ecutive	-5423
trained	-5424
▁Altern	-5425
▁Morgan	-5426
▁Scient	-5427
▁biases	-5428
▁driven	-5429
▁extent	-5430
▁facial	-5431
▁places	-5432
▁proofs	-5433
▁summar	-5434
▁Version	-5435
▁bitcoin	-5436
▁browser	-5437
▁caching	-5438
▁denoted	-5439
▁efforts	-5440
▁journal	-5441
▁located	-5442
▁looking	-5443
▁neither	-5444
▁receive	-5445
▁Facebook	-5446
▁affected	-5447
▁clusters	-5448
▁pipeline	-5449
▁presence	-5450
▁recovery	-5451
▁sampling	-5452
▁spoofing	-5453
▁surround	-5454
▁direction	-5455
▁encompass	-5456
▁partially	-5457
▁Relational	-5458
▁authorized	-5459
▁conceptual	-5460
▁extraction	-5461
▁innovation	-5462
▁objectives	-5463
▁popularity	-5464
▁redundancy	-5465
▁separation	-5466
▁compilation	-5467
▁conferences	-5468
▁controlling	-5469
▁correctness	-5470
▁observation	-5471
▁transmitted	-5472
▁Reinforcement	-5473
▁certification	-5474
▁communicating	-5475
▁comprehensive	-5476
▁Communications	-5477
56	-5478
OM	-5479
PA	-5480
VR	-5481
gi	-5482
no	-5483
xy	-5484
}{	-5485
▁φ	-5486
avy	-5487
ips	-5488
pon	-5489
ube	-5490
ued	-5491
▁Co	-5492
▁Fl	-5493
▁id	-5494
arth	-5495
ered	-5496
igen	-5497
ocal	-5498
reng	-5499
▁Bol	-5500
▁Let	-5501
▁RSA	-5502
▁tri	-5503
ening	-5504
fully	-5505
inese	-5506
isely	-5507
ishes	-5508
osing	-5509
using	-5510
▁2017	-5511
▁2022	-5512
▁Sing	-5513
▁Tele	-5514
▁dedu	-5515
▁intu	-5516
▁kept	-5517
▁mind	-5518
▁shad	-5519
▁site	-5520
▁span	-5521
▁thin	-5522
▁took	-5523
▁want	-5524
▁your	-5525
arency	-5526
effect	-5527
server	-5528
▁DBMSs	-5529
▁State	-5530
▁child	-5531
▁chips	-5532
▁color	-5533
▁fails	-5534
▁prote	-5535
▁reads	-5536
ocation	-5537
▁Visual	-5538
▁checks	-5539
▁module	-5540
▁placed	-5541
culation	-5542
▁British	-5543
▁Charles	-5544
▁Federal	-5545
▁Profess	-5546
▁convers	-5547
▁ethical	-5548
▁founded	-5549
▁massive	-5550
▁texture	-5551
▁visible	-5552
▁counting	-5553
▁coverage	-5554
▁decoding	-5555
▁dominant	-5556
▁mainfram	-5557
▁phenomen	-5558
▁simplest	-5559
▁targeted	-5560
▁Algorithm	-5561
▁Computers	-5562
▁Retrieved	-5563
▁Standards	-5564
▁copyright	-5565
▁graphical	-5566
▁isolation	-5567
▁messaging	-5568
▁political	-5569
▁precisely	-5570
▁utilities	-5571
▁worldwide	-5572
▁applicable	-5573
▁foundation	-5574
▁likelihood	-5575
▁physically	-5576
eterministic	-5577
▁Recognition	-5578
▁assumptions	-5579
▁dynamically	-5580
▁exponential	-5581
▁governments	-5582
▁requirement	-5583
▁asynchronous	-5584
▁combinations	-5585
▁transformers	-5586
▁universities	-5587
▁consideration	-5588
▁sophisticated	-5589
▁vulnerability	-5590
▁considerations	-5591
5%	-5592
As	-5593
NU	-5594
OP	-5595
PL	-5596
▁≤	-5597
▁⊆	-5598
(1-	-5599
RAM	-5600
isp	-5601
osh	-5602
▁60	-5603
▁NF	-5604
▁vs	-5605
,000	-5606
aris	-5607
ille	-5608
ivil	-5609
mber	-5610
oken	-5611
ulti	-5612
valu	-5613
▁Ada	-5614
▁Min	-5615
▁Opt	-5616
▁San	-5617
▁Sut	-5618
▁Top	-5619
▁cle	-5620
▁lex	-5621
▁{1,	-5622
_{1},	-5623
aming	-5624
esley	-5625
faces	-5626
hetic	-5627
ifact	-5628
iforn	-5629
itely	-5630
often	-5631
stein	-5632
style	-5633
▁1950	-5634
▁Aust	-5635
▁Labs	-5636
▁Sout	-5637
▁agre	-5638
▁days	-5639
▁else	-5640
▁emul	-5641
▁fall	-5642
▁film	-5643
▁harm	-5644
▁imag	-5645
▁pods	-5646
▁pref	-5647
▁wait	-5648
▁{1}{	-5649
orphic	-5650
valued	-5651
▁2019,	-5652
▁North	-5653
▁Power	-5654
▁argue	-5655
▁compr	-5656
▁joint	-5657
▁perce	-5658
▁wareh	-5659
▁white	-5660
ifornia	-5661
incipal	-5662
ulative	-5663
▁Commer	-5664
▁Energy	-5665
▁Thomas	-5666
▁Within	-5667
▁advert	-5668
▁belong	-5669
▁choose	-5670
▁finger	-5671
▁formed	-5672
▁months	-5673
▁promin	-5674
▁qubits	-5675
▁stable	-5676
▁vendor	-5677
irewalls	-5678
▁Chinese	-5679
▁backpro	-5680
▁bounded	-5681
▁congest	-5682
▁fashion	-5683
▁indexed	-5684
▁perhaps	-5685
ationship	-5686
urrencies	-5687
▁Stanford	-5688
▁becoming	-5689
▁branches	-5690
▁distance	-5691
▁economic	-5692
▁formulas	-5693
▁improves	-5694
▁indexing	-5695
▁interval	-5696
▁offering	-5697
▁patients	-5698
▁properly	-5699
▁receives	-5700
▁temporal	-5701
▁variants	-5702
▁Attention	-5703
▁Databases	-5704
▁animation	-5705
▁awareness	-5706
▁combining	-5707
▁corporate	-5708
▁diagnosis	-5709
▁discrimin	-5710
▁discussed	-5711
▁empirical	-5712
▁identical	-5713
▁intrusion	-5714
▁invention	-5715
▁recurrent	-5716
▁registers	-5717
▁simulated	-5718
▁subsystem	-5719
▁telephone	-5720
▁California	-5721
▁classifier	-5722
▁evaluating	-5723
▁sequencing	-5724
▁association	-5725
▁experiences	-5726
▁linguistics	-5727
▁measurement	-5728
▁simulations	-5729
▁transparent	-5730
▁Encyclopedia	-5731
▁restrictions	-5732
▁cryptanalysis	-5733
▁technological	-5734
89	-5735
CH	-5736
GR	-5737
ba	-5738
cd	-5739
ACE	-5740
\}}	-5741
ale	-5742
did	-5743
ker	-5744
lus	-5745
▁0,	-5746
▁Lo	-5747
▁bo	-5748
akes	-5749
drop	-5750
oura	-5751
roid	-5752
ungs	-5753
what	-5754
▁Bab	-5755
▁Key	-5756
▁NSA	-5757
▁XML	-5758
▁exc	-5759
▁our	-5760
▁pan	-5761
▁pen	-5762
▁tem	-5763
▁wat	-5764
Delta	-5765
acter	-5766
ffice	-5767
iling	-5768
isted	-5769
ntice	-5770
rieve	-5771
▁Diff	-5772
▁Educ	-5773
▁From	-5774
▁Hall	-5775
▁Step	-5776
▁prof	-5777
▁sear	-5778
▁soci	-5779
Turing	-5780
cember	-5781
memory	-5782
rovers	-5783
teness	-5784
▁2022,	-5785
▁Const	-5786
▁adequ	-5787
▁fluid	-5788
▁goods	-5789
▁infer	-5790
▁merge	-5791
▁newer	-5792
▁novel	-5793
▁paths	-5794
▁shift	-5795
▁shows	-5796
▁topic	-5797
▁twent	-5798
ometric	-5799
riority	-5800
▁August	-5801
▁Center	-5802
▁Compar	-5803
▁Histor	-5804
▁OpenAI	-5805
▁Princi	-5806
▁Search	-5807
▁Theore	-5808
▁atomic	-5809
▁candid	-5810
▁exceed	-5811
▁learns	-5812
▁perman	-5813
▁phases	-5814
▁schema	-5815
▁streng	-5816
▁thesis	-5817
▁trying	-5818
▁verify	-5819
▁videos	-5820
▁workst	-5821
avirtual	-5822
cription	-5823
emporary	-5824
▁Entropy	-5825
▁Methods	-5826
▁answers	-5827
▁encoded	-5828
▁handled	-5829
▁illustr	-5830
▁priorit	-5831
▁reports	-5832
▁student	-5833
▁Advanced	-5834
▁argument	-5835
▁artifact	-5836
▁combines	-5837
▁failures	-5838
▁flexible	-5839
▁floating	-5840
▁occurred	-5841
▁optional	-5842
▁overcome	-5843
▁possibly	-5844
▁retrieve	-5845
▁selected	-5846
relational	-5847
▁Different	-5848
▁Interface	-5849
▁Sometimes	-5850
▁achieving	-5851
▁addressed	-5852
▁delivered	-5853
▁expertise	-5854
▁filtering	-5855
▁highlight	-5856
▁plaintext	-5857
▁remaining	-5858
▁sentences	-5859
▁signature	-5860
▁usability	-5861
▁Blockchain	-5862
▁Complexity	-5863
▁Encryption	-5864
▁calculated	-5865
▁confidence	-5866
▁dictionary	-5867
▁elementary	-5868
▁facilities	-5869
▁foundations	-5870
▁incorporate	-5871
▁substantial	-5872
▁intersection	-5873
▁unstructured	-5874
▁architectural	-5875
▁normalization	-5876
▁mathematically	-5877
49	-5878
Ad	-5879
EN	-5880
OC	-5881
SE	-5882
Sh	-5883
Th	-5884
be	-5885
ki	-5886
tr	-5887
▁<	-5888
▁α	-5889
"),	-5890
).}	-5891
EST	-5892
IFO	-5893
ats	-5894
ife	-5895
ios	-5896
itz	-5897
raw	-5898
umb	-5899
▁22	-5900
▁AT	-5901
▁BC	-5902
▁Ka	-5903
▁Ma	-5904
▁da	-5905
apan	-5906
arse	-5907
code	-5908
ebru	-5909
erve	-5910
lder	-5911
lock	-5912
nals	-5913
oles	-5914
sche	-5915
seud	-5916
vard	-5917
▁Bro	-5918
▁Ele	-5919
▁Equ	-5920
▁Gen	-5921
▁HMM	-5922
▁LAN	-5923
▁SIM	-5924
▁age	-5925
▁arc	-5926
▁max	-5927
▁try	-5928
acent	-5929
akers	-5930
appro	-5931
avily	-5932
bound	-5933
iliar	-5934
rolog	-5935
uming	-5936
under	-5937
▁2015	-5938
▁2018	-5939
▁Army	-5940
▁Geor	-5941
▁Jose	-5942
▁Mass	-5943
▁Mess	-5944
▁Prob	-5945
▁Symb	-5946
▁User	-5947
▁date	-5948
▁gave	-5949
▁push	-5950
▁vict	-5951
advant	-5952
ersive	-5953
iative	-5954
istors	-5955
ortium	-5956
ources	-5957
points	-5958
▁(2010	-5959
▁2012,	-5960
▁Incre	-5961
▁Japan	-5962
▁RDBMS	-5963
▁Style	-5964
▁agree	-5965
▁crash	-5966
▁doing	-5967
▁guest	-5968
▁hyper	-5969
▁imple	-5970
▁moved	-5971
▁split	-5972
ebruary	-5973
herence	-5974
ircraft	-5975
ocrates	-5976
onymous	-5977
tically	-5978
written	-5979
▁Govern	-5980
▁Robert	-5981
▁actors	-5982
▁cycles	-5983
▁double	-5984
▁sector	-5985
▁signed	-5986
▁struct	-5987
▁unless	-5988
Computer	-5989
anguages	-5990
▁Addison	-5991
▁Company	-5992
▁Dynamic	-5993
▁Storage	-5994
▁William	-5995
▁accompl	-5996
▁appears	-5997
▁backing	-5998
▁capital	-5999
▁claimed	-6000
▁corrupt	-6001
▁differs	-6002
▁ensures	-6003
▁heavily	-6004
▁imaging	-6005
▁mention	-6006
▁minimum	-6007
▁notable	-6008
▁precise	-6009
▁rapidly	-6010
▁roughly	-6011
▁session	-6012
▁synthes	-6013
theoretic	-6014
▁Prentice	-6015
▁Problems	-6016
▁acquired	-6017
▁automate	-6018
▁continue	-6019
▁diagrams	-6020
▁emotions	-6021
▁indicate	-6022
▁majority	-6023
▁medicine	-6024
▁proteins	-6025
▁received	-6026
▁scalable	-6027
▁workflow	-6028
▁abilities	-6029
▁balancing	-6030
▁benchmark	-6031
▁debugging	-6032
▁marketing	-6033
▁networked	-6034
▁privilege	-6035
▁searching	-6036
▁treatment	-6037
▁activation	-6038
▁analytical	-6039
▁ciphertext	-6040
▁implements	-6041
▁permission	-6042
▁positional	-6043
▁predictive	-6044
▁preventing	-6045
architecture	-6046
▁Performance	-6047
▁calculation	-6048
▁consequence	-6049
▁considering	-6050
▁dependencies	-6051
▁establishing	-6052
▁observations	-6053
▁productivity	-6054
▁unsupervised	-6055
▁Computability	-6056
▁environmental	-6057
▁confidentiality	-6058
-0	-6059
35	-6060
79	-6061
AA	-6062
PP	-6063
RI	-6064
eq	-6065
rt	-6066
sq	-6067
})	-6068
0,1	-6069
200	-6070
4),	-6071
IME	-6072
den	-6073
eed	-6074
eta	-6075
gen	-6076
isy	-6077
rip	-6078
urb	-6079
})\	-6080
▁50	-6081
▁:=	-6082
▁Bo	-6083
▁Ro	-6084
▁Up	-6085
▁pi	-6086
▁}(	-6087
ARPA	-6088
aper	-6089
circ	-6090
down	-6091
even	-6092
ighb	-6093
isco	-6094
oney	-6095
▁BFR	-6096
▁Cla	-6097
▁Git	-6098
▁Mot	-6099
▁Non	-6100
▁RNN	-6101
▁Str	-6102
▁Use	-6103
▁hor	-6104
▁mim	-6105
▁van	-6106
antor	-6107
cious	-6108
ctive	-6109
delta	-6110
eline	-6111
elled	-6112
ensus	-6113
giene	-6114
ivial	-6115
marks	-6116
power	-6117
rench	-6118
riers	-6119
undam	-6120
xford	-6121
▁2009	-6122
▁Free	-6123
▁Home	-6124
▁Just	-6125
▁Lisp	-6126
▁NIST	-6127
▁POST	-6128
▁Pers	-6129
▁Port	-6130
▁Term	-6131
▁coin	-6132
▁land	-6133
▁loop	-6134
▁mand	-6135
▁poor	-6136
▁road	-6137
▁room	-6138
▁sect	-6139
▁shif	-6140
ilbert	-6141
imodal	-6142
output	-6143
stream	-6144
▁Alpha	-6145
▁Types	-6146
▁arise	-6147
▁clean	-6148
▁escal	-6149
▁favor	-6150
▁guess	-6151
▁leads	-6152
▁mount	-6153
▁notes	-6154
▁party	-6155
▁quite	-6156
▁repro	-6157
▁shape	-6158
▁toler	-6159
decoder	-6160
entions	-6161
isition	-6162
machine	-6163
usually	-6164
▁Academ	-6165
▁George	-6166
▁Online	-6167
▁Report	-6168
▁Review	-6169
▁arrays	-6170
▁cancer	-6171
▁depart	-6172
▁forces	-6173
▁manual	-6174
▁relies	-6175
▁scalar	-6176
▁travel	-6177
▁tuples	-6178
avesdrop	-6179
▁978-0-1	-6180
▁Austral	-6181
▁Natural	-6182
▁Working	-6183
▁assumed	-6184
▁compare	-6185
▁culture	-6186
▁disclos	-6187
▁evolved	-6188
▁hackers	-6189
▁hygiene	-6190
▁notably	-6191
▁ongoing	-6192
▁organiz	-6193
▁packets	-6194
▁picture	-6195
▁simpler	-6196
▁thermod	-6197
▁trusted	-6198
▁volumes	-6199
sequently	-6200
▁Moreover	-6201
▁Multiple	-6202
▁breaking	-6203
▁composed	-6204
▁criteria	-6205
▁cyberatt	-6206
▁engineer	-6207
▁executes	-6208
▁inherent	-6209
▁maximize	-6210
▁operates	-6211
▁optimize	-6212
▁updating	-6213
▁Administr	-6214
▁Authentic	-6215
▁Education	-6216
▁Framework	-6217
▁Represent	-6218
▁algebraic	-6219
▁analogous	-6220
▁arguments	-6221
▁generates	-6222
▁interoper	-6223
▁personnel	-6224
▁principal	-6225
▁regarding	-6226
▁specifies	-6227
▁successor	-6228
▁Continuous	-6229
▁Foundation	-6230
▁Protection	-6231
▁background	-6232
▁department	-6233
▁everything	-6234
▁geographic	-6235
▁manufactur	-6236
▁regardless	-6237
▁regulation	-6238
▁revolution	-6239
▁enforcement	-6240
▁integrating	-6241
▁transistors	-6242
▁augmentation	-6243
▁microkernels	-6244
▁standardized	-6245
▁cryptosystems	-6246
▁decentralized	-6247
▁professionals	-6248
▁characteristic	-6249
▁organizational	-6250
▁backpropagation	-6251
)-	-6252
0\	-6253
28	-6254
64	-6255
68	-6256
QP	-6257
▁δ	-6258
CPU	-6259
NIX	-6260
\,}	-6261
add	-6262
ham	-6263
lay	-6264
leq	-6265
reg	-6266
urg	-6267
▁)}	-6268
▁1:	-6269
▁Id	-6270
▁Po	-6271
▁RL	-6272
▁Sk	-6273
▁pg	-6274
^{2}	-6275
asks	-6276
ason	-6277
hest	-6278
itch	-6279
onic	-6280
▁GET	-6281
▁Hen	-6282
▁Ins	-6283
▁Lim	-6284
▁SSL	-6285
▁ast	-6286
▁bra	-6287
▁cir	-6288
▁don	-6289
▁jud	-6290
▁suc	-6291
▁why	-6292
allow	-6293
artin	-6294
grams	-6295
ician	-6296
isher	-6297
istry	-6298
keley	-6299
matic	-6300
organ	-6301
ourse	-6302
party	-6303
place	-6304
ploys	-6305
press	-6306
write	-6307
▁2023	-6308
▁2024	-6309
▁Chat	-6310
▁Edge	-6311
▁Indu	-6312
▁Main	-6313
▁Plan	-6314
▁heat	-6315
▁invo	-6316
▁lies	-6317
▁seem	-6318
▁soft	-6319
▁solv	-6320
▁soon	-6321
▁subd	-6322
▁vast	-6323
▁wear	-6324
:10.10	-6325
annels	-6326
asking	-6327
ealing	-6328
idents	-6329
uation	-6330
▁2007,	-6331
▁Analy	-6332
▁Bioin	-6333
▁Carlo	-6334
▁Force	-6335
▁bases	-6336
▁eight	-6337
▁older	-6338
▁seeks	-6339
▁stere	-6340
▁tries	-6341
ifiable	-6342
imately	-6343
istance	-6344
ournals	-6345
problem	-6346
quantum	-6347
▁Cantor	-6348
▁Claude	-6349
▁Graphs	-6350
▁Martin	-6351
▁Oxford	-6352
▁ambigu	-6353
▁batter	-6354
▁circle	-6355
▁circum	-6356
▁frames	-6357
▁latent	-6358
▁merely	-6359
▁outper	-6360
▁phrase	-6361
▁preced	-6362
▁predic	-6363
▁serial	-6364
▁starts	-6365
▁termed	-6366
▁unlike	-6367
▁victim	-6368
language	-6369
subseteq	-6370
▁Babbage	-6371
▁Chapter	-6372
▁Concept	-6373
▁Harvard	-6374
▁Solaris	-6375
▁Univers	-6376
▁broader	-6377
▁country	-6378
▁coupled	-6379
▁decades	-6380
▁despite	-6381
▁funding	-6382
▁options	-6383
▁proceed	-6384
▁reached	-6385
▁textual	-6386
▁treated	-6387
▁varying	-6388
▁weather	-6389
decidable	-6390
▁Berkeley	-6391
▁Handbook	-6392
▁Networks	-6393
▁Semantic	-6394
▁Training	-6395
▁adaptive	-6396
▁anything	-6397
▁classify	-6398
▁determin	-6399
▁expanded	-6400
▁explored	-6401
▁fairness	-6402
▁guidance	-6403
▁limiting	-6404
▁releases	-6405
▁speaking	-6406
▁strictly	-6407
▁theories	-6408
▁Philosoph	-6409
▁alignment	-6410
▁attribute	-6411
▁extensive	-6412
▁geometric	-6413
▁guarantee	-6414
▁iterative	-6415
▁Containers	-6416
▁compatible	-6417
▁configured	-6418
▁discussion	-6419
▁persistent	-6420
▁philosophy	-6421
▁reasonable	-6422
▁validation	-6423
disciplinary	-6424
▁Researchers	-6425
▁acquisition	-6426
▁algorithmic	-6427
▁electronics	-6428
▁synchronous	-6429
▁independence	-6430
▁sufficiently	-6431
▁convolutional	-6432
▁traditionally	-6433
▁Authentication	-6434
77	-6435
:\	-6436
En	-6437
Fi	-6438
UI	-6439
dx	-6440
ek	-6441
fl	-6442
▁^	-6443
▁λ	-6444
▁⋅	-6445
▁⋯	-6446
=-\	-6447
SIC	-6448
aff	-6449
etr	-6450
lim	-6451
mon	-6452
rab	-6453
rum	-6454
van	-6455
▁11	-6456
▁26	-6457
▁64	-6458
▁Hu	-6459
▁Mo	-6460
▁VM	-6461
▁Wi	-6462
▁ec	-6463
▁sn	-6464
amma	-6465
cape	-6466
cdot	-6467
fill	-6468
ideo	-6469
oust	-6470
plan	-6471
prob	-6472
uzzy	-6473
▁Bas	-6474
▁Bob	-6475
▁Kle	-6476
▁McC	-6477
▁Num	-6478
▁Sam	-6479
▁Sym	-6480
▁_{2	-6481
▁cov	-6482
▁pil	-6483
▁raw	-6484
▁rol	-6485
amper	-6486
first	-6487
iment	-6488
label	-6489
orous	-6490
osely	-6491
patch	-6492
plied	-6493
small	-6494
ubiqu	-6495
▁Like	-6496
▁Much	-6497
▁Paul	-6498
▁Rail	-6499
▁Read	-6500
▁Wide	-6501
▁auto	-6502
▁dens	-6503
▁doct	-6504
▁door	-6505
▁flaw	-6506
▁race	-6507
▁subt	-6508
Wesley	-6509
earson	-6510
idungs	-6511
▁Index	-6512
▁March	-6513
▁Quest	-6514
▁hosts	-6515
▁meant	-6516
▁music	-6517
▁noisy	-6518
▁tends	-6519
▁theft	-6520
▁trace	-6521
▁tuple	-6522
aScript	-6523
bmatrix	-6524
encoder	-6525
fitting	-6526
itimate	-6527
itivity	-6528
jective	-6529
pmatrix	-6530
▁Andrew	-6531
▁Author	-6532
▁Donald	-6533
▁Health	-6534
▁Oculus	-6535
▁annual	-6536
▁backup	-6537
▁bounds	-6538
▁digits	-6539
▁layout	-6540
▁listed	-6541
▁metric	-6542
▁parent	-6543
▁spoken	-6544
▁toward	-6545
expected	-6546
priority	-6547
▁Medical	-6548
▁Pearson	-6549
▁Similar	-6550
▁Stephen	-6551
▁Testing	-6552
▁Typical	-6553
▁conform	-6554
▁diagram	-6555
▁disrupt	-6556
▁employs	-6557
▁filters	-6558
▁formats	-6559
▁generic	-6560
▁halting	-6561
▁maximal	-6562
▁percept	-6563
▁perfect	-6564
▁pioneer	-6565
▁relying	-6566
▁society	-6567
▁variant	-6568
ibilities	-6569
mediately	-6570
▁Business	-6571
▁December	-6572
▁February	-6573
▁Gaussian	-6574
▁channels	-6575
▁contexts	-6576
▁criminal	-6577
▁electrom	-6578
▁emerging	-6579
▁millions	-6580
▁mitigate	-6581
▁negation	-6582
▁peripher	-6583
▁publicly	-6584
▁realized	-6585
▁repeated	-6586
▁sciences	-6587
▁segments	-6588
▁verified	-6589
rightarrow	-6590
scheidungs	-6591
▁Languages	-6592
▁considers	-6593
▁formalism	-6594
▁incorrect	-6595
▁influence	-6596
▁mechanics	-6597
▁pipelines	-6598
▁translate	-6599
▁Comparison	-6600
▁Government	-6601
▁Principles	-6602
▁accurately	-6603
▁assignment	-6604
▁clustering	-6605
▁congestion	-6606
▁controvers	-6607
▁hypervisor	-6608
▁interrupts	-6609
▁investment	-6610
▁practition	-6611
▁collections	-6612
▁counterpart	-6613
▁descriptive	-6614
▁exploration	-6615
▁flexibility	-6616
▁introducing	-6617
▁isomorphism	-6618
▁superscalar	-6619
▁Organization	-6620
▁connectivity	-6621
▁consequences	-6622
▁contemporary	-6623
▁continuously	-6624
▁implications	-6625
▁programmable	-6626
▁segmentation	-6627
▁transparency	-6628
▁workstations	-6629
▁possibilities	-6630
▁configurations	-6631
▁mathematicians	-6632
":	-6633
%,	-6634
)]	-6635
1\	-6636
Do	-6637
EO	-6638
GP	-6639
öd	-6640
▁ε	-6641
▁∘	-6642
6).	-6643
9),	-6644
ASA	-6645
ECT	-6646
Pro	-6647
arr	-6648
gle	-6649
mit	-6650
pre	-6651
que	-6652
ses	-6653
uel	-6654
war	-6655
▁28	-6656
▁Av	-6657
▁Er	-6658
▁IN	-6659
▁Kn	-6660
)=-\	-6661
HTTP	-6662
_{1}	-6663
anks	-6664
aste	-6665
atio	-6666
hard	-6667
iley	-6668
ners	-6669
opic	-6670
peer	-6671
pers	-6672
rosc	-6673
step	-6674
ödel	-6675
▁CGI	-6676
▁Gro	-6677
▁Mag	-6678
▁Pol	-6679
▁Ter	-6680
▁Wil	-6681
▁ign	-6682
▁lot	-6683
▁mom	-6684
▁pet	-6685
▁tun	-6686
abled	-6687
alone	-6688
array	-6689
cdots	-6690
onomy	-6691
▁2001	-6692
▁Four	-6693
▁Gree	-6694
▁King	-6695
▁NTFS	-6696
▁Type	-6697
▁acts	-6698
▁appe	-6699
▁arch	-6700
▁bank	-6701
▁city	-6702
▁fake	-6703
▁flag	-6704
▁here	-6705
▁magn	-6706
▁volt	-6707
abling	-6708
change	-6709
esting	-6710
lowing	-6711
lusion	-6712
stries	-6713
tzmann	-6714
▁2021,	-6715
▁2025,	-6716
▁Agile	-6717
▁Ident	-6718
▁Three	-6719
▁affor	-6720
▁alone	-6721
▁bring	-6722
▁brute	-6723
▁civil	-6724
▁gains	-6725
▁genom	-6726
▁grown	-6727
▁heavy	-6728
▁imply	-6729
▁labor	-6730
▁lever	-6731
▁teach	-6732
▁texts	-6733
▁ubiqu	-6734
iations	-6735
passing	-6736
ynamics	-6737
▁Before	-6738
▁Christ	-6739
▁French	-6740
▁causal	-6741
▁conven	-6742
▁excess	-6743
▁extend	-6744
▁famous	-6745
▁marked	-6746
▁masked	-6747
▁neighb	-6748
▁permut	-6749
▁phones	-6750
▁pixels	-6751
▁remove	-6752
▁sounds	-6753
▁window	-6754
▁writes	-6755
entional	-6756
gressive	-6757
iability	-6758
itations	-6759
ployment	-6760
vertible	-6761
▁Android	-6762
▁Example	-6763
▁Notable	-6764
▁Russell	-6765
▁Schedul	-6766
▁Studies	-6767
▁assigns	-6768
▁choices	-6769
▁classic	-6770
▁clearly	-6771
▁constit	-6772
▁driving	-6773
▁keeping	-6774
▁someone	-6775
echanical	-6776
▁accesses	-6777
▁detected	-6778
▁diagnost	-6779
▁dispatch	-6780
▁familiar	-6781
▁lighting	-6782
▁quantity	-6783
▁regarded	-6784
▁revealed	-6785
▁searches	-6786
▁suggests	-6787
▁utilized	-6788
▁Boltzmann	-6789
▁Machinery	-6790
▁broadcast	-6791
▁converted	-6792
▁displayed	-6793
▁evaluated	-6794
▁explained	-6795
▁immediate	-6796
▁indicates	-6797
▁injection	-6798
▁introduce	-6799
▁movements	-6800
▁positions	-6801
▁precision	-6802
▁preferred	-6803
▁provision	-6804
▁dependency	-6805
▁determines	-6806
▁dimensions	-6807
▁documented	-6808
▁escalation	-6809
▁expressive	-6810
▁inferences	-6811
▁programmed	-6812
▁Transaction	-6813
▁electricity	-6814
▁immediately	-6815
▁portability	-6816
▁regulations	-6817
▁replacement	-6818
▁transferred	-6819
deterministic	-6820
▁Cryptography	-6821
▁Interpreters	-6822
▁Professional	-6823
▁propositions	-6824
▁Combinatorics	-6825
▁Entscheidungs	-6826
▁decomposition	-6827
▁factorization	-6828
▁substantially	-6829
▁Administration	-6830
▁Bioinformatics	-6831
▁cryptocurrency	-6832
▁supercomputers	-6833
▁computationally	-6834
&\	-6835
23	-6836
24	-6837
29	-6838
54	-6839
MC	-6840
TE	-6841
US	-6842
ae	-6843
fs	-6844
▁*	-6845
,{\	-6846
2-0	-6847
=1}	-6848
DOS	-6849
ait	-6850
gal	-6851
ibn	-6852
ini	-6853
seq	-6854
}{\	-6855
▁(4	-6856
▁AN	-6857
▁Ca	-6858
▁Gl	-6859
▁Gr	-6860
▁SD	-6861
▁ir	-6862
521-	-6863
Mind	-6864
cean	-6865
comp	-6866
crit	-6867
eces	-6868
eers	-6869
fact	-6870
from	-6871
late	-6872
onds	-6873
otes	-6874
otic	-6875
publ	-6876
tion	-6877
}}{\	-6878
▁(2.	-6879
▁BQP	-6880
▁Bel	-6881
▁Ben	-6882
▁DNS	-6883
▁End	-6884
▁Leg	-6885
▁Pas	-6886
▁Ray	-6887
▁Sat	-6888
▁Sun	-6889
▁You	-6890
▁pad	-6891
▁sav	-6892
▁sil	-6893
▁tax	-6894
alpha	-6895
ansom	-6896
ender	-6897
ested	-6898
hence	-6899
itous	-6900
olicy	-6901
owers	-6902
ports	-6903
riend	-6904
speed	-6905
table	-6906
tuned	-6907
▁Book	-6908
▁Cost	-6909
▁Docu	-6910
▁Fort	-6911
▁Full	-6912
▁Here	-6913
▁Jeff	-6914
▁Play	-6915
▁Rele	-6916
▁Requ	-6917
▁Resp	-6918
▁Sequ	-6919
▁Time	-6920
▁anti	-6921
▁dong	-6922
▁lost	-6923
▁mist	-6924
▁pick	-6925
▁quad	-6926
▁spat	-6927
▁star	-6928
▁ther	-6929
▁unus	-6930
▁wave	-6931
▁weap	-6932
▁went	-6933
cially	-6934
istant	-6935
lambda	-6936
omatic	-6937
struct	-6938
urally	-6939
▁2010,	-6940
▁2013,	-6941
▁Among	-6942
▁Davis	-6943
▁Guide	-6944
▁Gödel	-6945
▁Monte	-6946
▁Their	-6947
▁Where	-6948
▁hands	-6949
▁imper	-6950
▁inner	-6951
▁manif	-6952
▁pixel	-6953
▁sales	-6954
▁sites	-6955
▁surpr	-6956
▁think	-6957
▁wider	-6958
herland	-6959
holders	-6960
patible	-6961
ularity	-6962
▁Daniel	-6963
▁Expert	-6964
▁Global	-6965
▁Indian	-6966
▁Prolog	-6967
▁abstra	-6968
▁advent	-6969
▁closer	-6970
▁clouds	-6971
▁delete	-6972
▁denial	-6973
▁diverg	-6974
▁failed	-6975
▁hosted	-6976
▁issued	-6977
▁master	-6978
▁mother	-6979
▁prepar	-6980
▁reserv	-6981
▁serves	-6982
▁versus	-6983
software	-6984
▁ChatGPT	-6985
▁Finding	-6986
▁Hilbert	-6987
▁dealing	-6988
▁decided	-6989
▁defense	-6990
▁disease	-6991
▁equally	-6992
▁exhibit	-6993
▁exposed	-6994
▁highest	-6995
▁license	-6996
▁locally	-6997
▁nothing	-6998
▁obvious	-6999
▁pointer	-7000
▁precurs	-7001
▁removed	-7002
▁showing	-7003
▁speedup	-7004
▁testers	-7005
▁Approach	-7006
▁Consider	-7007
▁Robotics	-7008
▁StyleGAN	-7009
▁appeared	-7010
▁children	-7011
▁diagonal	-7012
▁manually	-7013
▁phishing	-7014
▁randomly	-7015
▁rejected	-7016
▁scanning	-7017
▁solvable	-7018
▁subgraph	-7019
▁surfaces	-7020
functional	-7021
gmentation	-7022
▁alongside	-7023
▁attempted	-7024
▁behaviour	-7025
▁committed	-7026
▁consensus	-7027
▁contracts	-7028
▁disadvant	-7029
▁eavesdrop	-7030
▁immersive	-7031
▁insurance	-7032
▁licensing	-7033
▁magnitude	-7034
▁optimized	-7035
▁phenomena	-7036
▁recording	-7037
▁reporting	-7038
▁secondary	-7039
▁syntactic	-7040
▁tolerance	-7041
performance	-7042
▁Scientific	-7043
▁Sutherland	-7044
▁assumption	-7045
▁completion	-7046
▁disclosure	-7047
▁forwarding	-7048
▁industries	-7049
▁interested	-7050
▁partitions	-7051
▁predicting	-7052
▁privileged	-7053
▁procedural	-7054
▁protecting	-7055
▁quantities	-7056
▁television	-7057
▁Computation	-7058
▁consecutive	-7059
▁corresponds	-7060
▁feedforward	-7061
▁generalized	-7062
▁identifiers	-7063
▁influential	-7064
▁paravirtual	-7065
▁propagation	-7066
▁abstractions	-7067
▁coordination	-7068
▁evolutionary	-7069
▁manipulating	-7070
▁quantitative	-7071
▁stakeholders	-7072
▁Communication	-7073
▁collaborative	-7074
▁compatibility	-7075
▁effectiveness	-7076
▁opportunities	-7077
▁Interpretation	-7078
▁administrative	-7079
▁administrators	-7080
▁explainability	-7081
(1	-7082
51	-7083
59	-7084
CD	-7085
FN	-7086
HA	-7087
MT	-7088
VD	-7089
WS	-7090
bs	-7091
ux	-7092
6),	-7093
IoT	-7094
but	-7095
eam	-7096
eck	-7097
emp	-7098
sem	-7099
var	-7100
}=\	-7101
–19	-7102
▁(\	-7103
▁4.	-7104
▁Br	-7105
▁Tr	-7106
▁Tw	-7107
Flow	-7108
apes	-7109
apse	-7110
atin	-7111
meas	-7112
priv	-7113
rele	-7114
rich	-7115
rout	-7116
rust	-7117
sqrt	-7118
uing	-7119
}}_{	-7120
▁10.	-7121
▁Bit	-7122
▁Cat	-7123
▁Def	-7124
▁Emb	-7125
▁GNU	-7126
▁Ham	-7127
▁Saf	-7128
▁Wal	-7129
▁bul	-7130
▁bur	-7131
▁cra	-7132
▁die	-7133
▁saw	-7134
▁ten	-7135
▁win	-7136
▁won	-7137
0,000	-7138
anger	-7139
attle	-7140
books	-7141
cient	-7142
ortal	-7143
paces	-7144
ranch	-7145
▁2007	-7146
▁2008	-7147
▁2011	-7148
▁2012	-7149
▁Alex	-7150
▁Arab	-7151
▁BERT	-7152
▁BFRs	-7153
▁DNNs	-7154
▁Gold	-7155
▁Good	-7156
▁Rout	-7157
▁Sony	-7158
▁Task	-7159
▁anom	-7160
▁byte	-7161
▁clin	-7162
▁epis	-7163
▁glob	-7164
▁jump	-7165
▁phon	-7166
▁pool	-7167
▁says	-7168
▁spin	-7169
▁tell	-7170
attice	-7171
ighter	-7172
itance	-7173
quency	-7174
redict	-7175
▁2009,	-7176
▁DARPA	-7177
▁Frank	-7178
▁Wiley	-7179
▁batch	-7180
▁deriv	-7181
▁enfor	-7182
▁finds	-7183
▁firms	-7184
▁fraud	-7185
▁grows	-7186
▁hence	-7187
▁loops	-7188
▁touch	-7189
Station	-7190
agnetic	-7191
alities	-7192
emptive	-7193
irected	-7194
lusions	-7195
mission	-7196
mounted	-7197
pertext	-7198
urrence	-7199
virtual	-7200
▁978-3-	-7201
▁Fundam	-7202
▁Models	-7203
▁Origin	-7204
▁Pascal	-7205
▁Secret	-7206
▁argues	-7207
▁cities	-7208
▁convey	-7209
▁cyberc	-7210
▁debate	-7211
▁encode	-7212
▁fairly	-7213
▁figure	-7214
▁intent	-7215
▁lookup	-7216
▁mental	-7217
▁neuron	-7218
▁preval	-7219
▁propag	-7220
▁purely	-7221
▁ranges	-7222
▁speeds	-7223
▁stress	-7224
▁worked	-7225
etection	-7226
unctions	-7227
▁Germany	-7228
▁Kingdom	-7229
▁Related	-7230
▁balance	-7231
▁causing	-7232
▁defects	-7233
▁deleted	-7234
▁deliber	-7235
▁encoura	-7236
▁existed	-7237
▁extends	-7238
▁fulfill	-7239
▁helpful	-7240
▁imagery	-7241
▁loosely	-7242
▁missing	-7243
▁patches	-7244
▁players	-7245
▁routers	-7246
▁scanned	-7247
▁sensory	-7248
▁viewing	-7249
textstyle	-7250
typically	-7251
▁Discrete	-7252
▁Transfer	-7253
▁adequate	-7254
▁aircraft	-7255
▁cellular	-7256
▁diseases	-7257
▁feasible	-7258
▁forecast	-7259
▁isolated	-7260
▁journals	-7261
▁monitors	-7262
▁ontology	-7263
▁predicts	-7264
▁resulted	-7265
▁rigorous	-7266
▁somewhat	-7267
▁subfield	-7268
▁subjects	-7269
▁triggers	-7270
▁uniquely	-7271
irectional	-7272
▁Automatic	-7273
▁Engineers	-7274
▁actuators	-7275
▁authority	-7276
▁conscious	-7277
▁continues	-7278
▁criticism	-7279
▁digitally	-7280
▁emergency	-7281
▁exclusive	-7282
▁heuristic	-7283
▁incidents	-7284
▁initiated	-7285
▁iteration	-7286
▁mentioned	-7287
▁migration	-7288
▁synthetic	-7289
▁variation	-7290
▁violation	-7291
▁virtually	-7292
▁Definition	-7293
▁Integrated	-7294
▁JavaScript	-7295
▁acceptance	-7296
▁assessment	-7297
▁comparable	-7298
▁compressed	-7299
▁contribute	-7300
▁correction	-7301
▁formalisms	-7302
▁identifies	-7303
▁influenced	-7304
▁invertible	-7305
▁legitimate	-7306
▁Integration	-7307
▁adversarial	-7308
▁classifying	-7309
▁departments	-7310
▁fingerprint	-7311
▁incremental	-7312
▁interesting	-7313
▁recognizing	-7314
▁Specifically	-7315
▁alternatives	-7316
▁corporations	-7317
▁incorporated	-7318
▁publications	-7319
▁telecommunic	-7320
▁Combinatorial	-7321
▁characterized	-7322
▁manufacturers	-7323
▁practitioners	-7324
▁Classification	-7325
'}	-7326
+1	-7327
33	-7328
6)	-7329
69	-7330
EX	-7331
Ex	-7332
MU	-7333
QA	-7334
].	-7335
▁>	-7336
▁§	-7337
-1.	-7338
9).	-7339
EAD	-7340
NOT	-7341
PAN	-7342
SON	-7343
bar	-7344
esh	-7345
hem	-7346
hot	-7347
oDB	-7348
|{\	-7349
▁14	-7350
▁24	-7351
▁29	-7352
▁Di	-7353
▁Fr	-7354
▁MS	-7355
▁du	-7356
)={\	-7357
...,	-7358
Cont	-7359
arts	-7360
baum	-7361
brev	-7362
ened	-7363
fare	-7364
file	-7365
ibli	-7366
inem	-7367
izon	-7368
oday	-7369
pens	-7370
real	-7371
stra	-7372
vari	-7373
▁360	-7374
▁Blu	-7375
▁Den	-7376
▁Hop	-7377
▁PDP	-7378
▁XAI	-7379
▁bud	-7380
▁her	-7381
▁him	-7382
▁tal	-7383
▁unf	-7384
amely	-7385
anges	-7386
asion	-7387
asses	-7388
aware	-7389
enses	-7390
ibniz	-7391
icing	-7392
itter	-7393
metry	-7394
opher	-7395
ranet	-7396
ronom	-7397
sense	-7398
users	-7399
▁Buil	-7400
▁Card	-7401
▁Conv	-7402
▁NASA	-7403
▁Safe	-7404
▁[199	-7405
▁ampl	-7406
▁dram	-7407
▁drop	-7408
▁fill	-7409
▁hous	-7410
▁ille	-7411
▁outl	-7412
▁plus	-7413
▁pron	-7414
▁taut	-7415
▁toss	-7416
▁walk	-7417
ellman	-7418
ibrary	-7419
isting	-7420
ursive	-7421
▁(1990	-7422
▁Dover	-7423
▁Fried	-7424
▁Input	-7425
▁Super	-7426
▁Today	-7427
▁absol	-7428
▁begun	-7429
▁bytes	-7430
▁court	-7431
▁doesn	-7432
▁draft	-7433
▁extra	-7434
▁fewer	-7435
▁ideal	-7436
▁metal	-7437
▁mouse	-7438
▁proxy	-7439
▁pseud	-7440
▁ratio	-7441
▁rigid	-7442
▁shell	-7443
ivision	-7444
lectual	-7445
paramet	-7446
quality	-7447
reading	-7448
reshold	-7449
writing	-7450
▁Around	-7451
▁Diffie	-7452
▁Kleene	-7453
▁Normal	-7454
▁Office	-7455
▁Safety	-7456
▁Though	-7457
▁Vulner	-7458
▁acting	-7459
▁asympt	-7460
▁defend	-7461
▁dialog	-7462
▁expose	-7463
▁latest	-7464
▁motors	-7465
▁pieces	-7466
▁prefer	-7467
▁raised	-7468
▁ransom	-7469
▁repeat	-7470
▁sparse	-7471
▁tracks	-7472
▁unused	-7473
▁vertex	-7474
▁yields	-7475
assisted	-7476
graduate	-7477
iconduct	-7478
ollowing	-7479
ructions	-7480
training	-7481
ulations	-7482
▁Commons	-7483
▁Environ	-7484
▁Sources	-7485
▁barrier	-7486
▁cheaper	-7487
▁checked	-7488
▁colleag	-7489
▁compens	-7490
▁compile	-7491
▁density	-7492
▁edition	-7493
▁handles	-7494
▁modeled	-7495
▁notions	-7496
▁paradox	-7497
▁sending	-7498
▁shading	-7499
▁sorting	-7500
▁spatial	-7501
▁species	-7502
▁squares	-7503
▁workers	-7504
consuming	-7505
▁Academic	-7506
▁Compiler	-7507
▁DeepMind	-7508
▁Document	-7509
▁Physical	-7510
▁Postgres	-7511
▁accounts	-7512
▁chemical	-7513
▁coloring	-7514
▁designer	-7515
▁enhanced	-7516
▁equipped	-7517
▁findings	-7518
▁prevents	-7519
▁studying	-7520
▁artifacts	-7521
▁buildings	-7522
▁desirable	-7523
▁ecosystem	-7524
▁molecular	-7525
▁naturally	-7526
▁obtaining	-7527
▁paradigms	-7528
▁primitive	-7529
▁satisfied	-7530
▁scripting	-7531
▁separated	-7532
▁stability	-7533
▁Commercial	-7534
▁Publishing	-7535
▁Techniques	-7536
▁collecting	-7537
▁connecting	-7538
▁constantly	-7539
▁constructs	-7540
▁coordinate	-7541
▁displaying	-7542
▁executable	-7543
▁historical	-7544
▁hypotheses	-7545
▁inherently	-7546
▁inspection	-7547
▁projection	-7548
▁psychology	-7549
▁references	-7550
▁respective	-7551
▁stationary	-7552
▁structural	-7553
▁supervisor	-7554
▁transistor	-7555
▁translates	-7556
▁ubiquitous	-7557
▁unexpected	-7558
▁variations	-7559
▁PlayStation	-7560
▁Theoretical	-7561
▁coefficient	-7562
▁communities	-7563
▁compromised	-7564
▁conclusions	-7565
▁correlation	-7566
▁differently	-7567
▁lightweight	-7568
▁preferences	-7569
▁proposition	-7570
▁readability	-7571
▁recommended	-7572
▁surrounding	-7573
▁Historically	-7574
▁Transactions	-7575
▁cyberattacks	-7576
▁disabilities	-7577
▁dramatically	-7578
▁expectations	-7579
▁significance	-7580
▁Cryptographic	-7581
▁Infrastructure	-7582
▁microprocessors	-7583
▁recommendations	-7584
'.	-7585
57	-7586
9)	-7587
97	-7588
LI	-7589
NA	-7590
Qu	-7591
SN	-7592
SS	-7593
So	-7594
TP	-7595
Us	-7596
VM	-7597
VS	-7598
aj	-7599
ho	-7600
zo	-7601
|\	-7602
1-0	-7603
110	-7604
2),	-7605
3),	-7606
5),	-7607
8-0	-7608
DPR	-7609
ETF	-7610
ISP	-7611
NET	-7612
amp	-7613
apy	-7614
arg	-7615
aur	-7616
bal	-7617
bor	-7618
cil	-7619
edy	-7620
kin	-7621
lag	-7622
lif	-7623
ney	-7624
non	-7625
ora	-7626
rag	-7627
uge	-7628
vol	-7629
▁1-	-7630
▁1/	-7631
▁SP	-7632
▁ow	-7633
ager	-7634
copy	-7635
date	-7636
door	-7637
gate	-7638
gery	-7639
hand	-7640
ibly	-7641
ilon	-7642
ools	-7643
path	-7644
play	-7645
rime	-7646
rong	-7647
tein	-7648
this	-7649
}})}	-7650
}}[\	-7651
▁Are	-7652
▁CEO	-7653
▁Cap	-7654
▁Eff	-7655
▁FOL	-7656
▁Gra	-7657
▁Her	-7658
▁ICs	-7659
▁Jul	-7660
▁Kol	-7661
▁Kur	-7662
▁Mal	-7663
▁Ont	-7664
▁SIG	-7665
▁TLS	-7666
▁Whe	-7667
▁Wol	-7668
▁bin	-7669
▁cut	-7670
▁eye	-7671
▁pul	-7672
▁ran	-7673
▁ray	-7674
▁seq	-7675
▁tro	-7676
=1}^{	-7677
achus	-7678
craft	-7679
ecure	-7680
erman	-7681
estic	-7682
insky	-7683
izers	-7684
otely	-7685
qubit	-7686
ratic	-7687
space	-7688
token	-7689
▁802.	-7690
▁Broo	-7691
▁Cham	-7692
▁Econ	-7693
▁ISSN	-7694
▁Kore	-7695
▁Life	-7696
▁Lond	-7697
▁Meas	-7698
▁Pack	-7699
▁Prim	-7700
▁Scal	-7701
▁Self	-7702
▁UNIX	-7703
▁Wire	-7704
▁Word	-7705
▁Writ	-7706
▁[0,1	-7707
▁adds	-7708
▁chun	-7709
▁foot	-7710
▁gets	-7711
▁goes	-7712
▁hosp	-7713
▁lect	-7714
▁logs	-7715
▁obst	-7716
▁suff	-7717
▁susp	-7718
▁tail	-7719
▁worm	-7720
▁}}_{	-7721
:10.11	-7722
_{1},\	-7723
edding	-7724
iology	-7725
ishers	-7726
isible	-7727
ocking	-7728
onical	-7729
ormous	-7730
plicaS	-7731
ufmann	-7732
urable	-7733
▁1996,	-7734
▁2014.	-7735
▁2020.	-7736
▁Award	-7737
▁	-7738
e	-7739
t	-7740
a	-7741
i	-7742
n	-7743
o	-7744
s	-7745
r	-7746
l	-7747
c	-7748
d	-7749
h	-7750
m	-7751
u	-7752
p	-7753
f	-7754
g	-7755
y	-7756
b	-7757
,	-7758
w	-7759
v	-7760
.	-7761
k	-7762
T	-7763
x	-7764
-	-7765
S	-7766
A	-7767
I	-7768
)	-7769
(	-7770
1	-7771
0	-7772
C	-7773
P	-7774
2	-7775
M	-7776
q	-7777
{	-7778
}	-7779
\	-7780
"	-7781
D	-7782
z	-7783
L	-7784
E	-7785
N	-7786
9	-7787
B	-7788
R	-7789
F	-7790
O	-7791
G	-7792
H	-7793
:	-7794
U	-7795
j	-7796
'	-7797
W	-7798
3	-7799
8	-7800
7	-7801
4	-7802
6	-7803
5	-7804
V	-7805
_	-7806
=	-7807
;	-7808
–	-7809
K	-7810
X	-7811
/	-7812
J	-7813
Q	-7814
Y	-7815
+	-7816
[	-7817
]	-7818
^	-7819
—	-7820
|	-7821
−	-7822
&	-7823
%	-7824
Z	-7825
μ	-7826
⁡	-7827
?	-7828
→	-7829
*	-7830
∈	-7831
⟩	-7832
$	-7833
θ	-7834
Ω	-7835
∼	-7836
∑	-7837
é	-7838
′	-7839
∨	-7840
¬	-7841
Σ	-7842
∧	-7843
∞	-7844
⁠	-7845
×	-7846
‖	-7847
σ	-7848
!	-7849
ö	-7850
π	-7851
∣	-7852
Δ	-7853
∗	-7854
←	-7855
⟨	-7856
<	-7857
φ	-7858
’	-7859
>	-7860
α	-7861
≤	-7862
⊆	-7863
ó	-7864
ε	-7865
λ	-7866
δ	-7867
⋅	-7868
⋯	-7869
∘	-7870
~	-7871
#	-7872
§	-7873
ü	-7874
Γ	-7875
Φ	-7876
∫	-7877
≠	-7878
⋮	-7879
á	-7880
ā	-7881
̄	-7882
ρ	-7883
Ψ	-7884
β	-7885
∩	-7886
“	-7887
”	-7888
∖	-7889
@	-7890
≈	-7891
ő	-7892
γ	-7893
≥	-7894
ī	-7895
Η	-7896
ω	-7897
⁄	-7898
à	-7899
ä	-7900
Π	-7901
ς	-7902
τ	-7903
∅	-7904
√	-7905
η	-7906
∪	-7907
≡	-7908
°	-7909
ï	-7910
ι	-7911
κ	-7912
ν	-7913
ο	-7914
ό	-7915
‘	-7916
↦	-7917
⊊	-7918
⊕	-7919
⊢	-7920
â	-7921
š	-7922
ζ	-7923
υ	-7924
ḥ	-7925
ὐ	-7926
∏	-7927
⊂	-7928
⋱	-7929
£	-7930
·	-7931
æ	-7932
ç	-7933
è	-7934
í	-7935
ø	-7936
ú	-7937
ń	-7938
ś	-7939
ή	-7940
ψ	-7941
א	-7942
‐	-7943
†	-7944
∀	-7945
∉	-7946
⏟	-7947
⟹	-7948
É	-7949
Ö	-7950
ê	-7951
ô	-7952
÷	-7953
ă	-7954
ć	-7955
Č	-7956
ē	-7957
Ġ	-7958
ł	-7959
ū	-7960
Λ	-7961
ά	-7962
έ	-7963
ί	-7964
χ	-7965
а	-7966
ḗ	-7967
ṭ	-7968
ἀ	-7969
‡	-7970
€	-7971
↑	-7972
↓	-7973
⇀	-7974
⇒	-7975
∇	-7976
≅	-7977
≜	-7978
⊈	-7979
⊖	-7980
⊤	-7981
⊥	-7982
⋈	-7983
△	-7984
⟺	-7985
⫋	-7986
一	-7987
体	-7988
作	-7989
化	-7990
台	-7991
合	-7992
平	-7993
战	-7994
联	-7995
